<unk>	0
<s>	0
</s>	0
<pad>	0
<sep>	0
<msk>	0
<sum>	0
<p>	0
</p>	0
<unused3>	0
<unused4>	0
<unused5>	0
<unused6>	0
<unused7>	0
<unused8>	0
<unused9>	0
<unused10>	0
<unused11>	0
<unused12>	0
<unused13>	0
<unused14>	0
<unused15>	0
<unused16>	0
<unused17>	0
<unused18>	0
<unused19>	0
<unused20>	0
<unused21>	0
<unused22>	0
<unused23>	0
<unused24>	0
<unused25>	0
<unused26>	0
<unused27>	0
<unused28>	0
<unused29>	0
<unused30>	0
<unused31>	0
<unused32>	0
<unused33>	0
<unused34>	0
<unused35>	0
<unused36>	0
<unused37>	0
<unused38>	0
<unused39>	0
<unused40>	0
<unused41>	0
<unused42>	0
<unused43>	0
<unused44>	0
<unused45>	0
<unused46>	0
<unused47>	0
<unused48>	0
<unused49>	0
<unused50>	0
<unused51>	0
<unused52>	0
<unused53>	0
<unused54>	0
<unused55>	0
<unused56>	0
<unused57>	0
<unused58>	0
<unused59>	0
<unused60>	0
<unused61>	0
<unused62>	0
<unused63>	0
<unused64>	0
<unused65>	0
<unused66>	0
<unused67>	0
<unused68>	0
<unused69>	0
<unused70>	0
<unused71>	0
<unused72>	0
<unused73>	0
<unused74>	0
<unused75>	0
<unused76>	0
<unused77>	0
<unused78>	0
<unused79>	0
<unused80>	0
<unused81>	0
<unused82>	0
<unused83>	0
<unused84>	0
<unused85>	0
<unused86>	0
<unused87>	0
<unused88>	0
<unused89>	0
<unused90>	0
<unused91>	0
<unused92>	0
<unused93>	0
<unused94>	0
<unused95>	0
<unused96>	0
<unused97>	0
<unused98>	0
<unused99>	0
.	-3.36089
을	-3.74869
▁	-3.9962
의	-4.03513
는	-4.19529
를	-4.24613
은	-4.43204
,	-4.44589
가	-4.47672
이	-4.48755
에	-4.58036
고	-4.74654
)	-5.06498
도	-5.09434
”	-5.14946
▁“	-5.1694
로	-5.25311
▁‘	-5.25916
’	-5.26594
일	-5.29938
과	-5.33261
(	-5.3486
한	-5.35948
▁있다	-5.41292
으로	-5.45983
에서	-5.47811
년	-5.59597
다	-5.61217
와	-5.61823
인	-5.63228
·	-5.65141
▁등	-5.67818
▁수	-5.74278
▁이	-5.895
"	-5.9394
▁1	-5.99645
만	-5.99758
▁"	-6.00341
'	-6.03804
▁'	-6.04853
하는	-6.06099
며	-6.06991
할	-6.09347
▁전	-6.13217
지	-6.14957
▁2	-6.15104
월	-6.16985
▁3	-6.19118
▁한	-6.20652
▁말했다	-6.22429
했다	-6.29332
▁있는	-6.34635
▁것으로	-6.38226
해	-6.38455
▁했다	-6.40299
하고	-6.4446
▁4	-6.4888
▁것	-6.49686
기	-6.61489
▁5	-6.67858
대	-6.71099
이라고	-6.74134
▁대한	-6.75066
게	-6.76005
이다	-6.77403
▁그	-6.78079
▁10	-6.81307
까지	-6.86314
된	-6.86595
▁6	-6.87268
서	-6.87435
나	-6.89651
명	-6.91201
▁뒤	-6.91221
▁밝혔다	-6.92444
▁한다	-6.93066
자	-6.93686
개	-6.94934
▁중	-6.95447
▁때	-6.95821
하게	-6.96482
히	-6.99926
시	-7.00253
...	-7.00321
▁위해	-7.00352
▁대해	-7.01767
▁김	-7.01778
▁한국	-7.02102
▁이날	-7.03875
▁박	-7.08588
▁그는	-7.08616
던	-7.09059
▁미국	-7.09088
▁지난	-7.11538
▁7	-7.12273
면	-7.12581
▁더	-7.13059
▁지난해	-7.13795
▁안	-7.15763
에게	-7.18039
▁8	-7.18051
▁서울	-7.1844
▁또	-7.21065
▁정부	-7.21123
억	-7.21593
-	-7.22982
보다	-7.2396
들이	-7.25132
▁9	-7.26088
▁두	-7.26137
▁중국	-7.2729
▁통해	-7.27409
▁것은	-7.2741
▁하지만	-7.29713
라고	-7.29952
▁이후	-7.30823
▁것이다	-7.31898
▁이번	-7.32695
에는	-7.32797
조	-7.38199
▁함께	-7.38398
진	-7.38693
주	-7.39161
하지	-7.39253
위	-7.39703
▁등을	-7.39715
선	-7.41027
▁이상	-7.41149
▁없다	-7.41377
▁경우	-7.4217
야	-7.4312
▁일본	-7.43124
사	-7.44009
▁<	-7.44723
▁올해	-7.44865
▁최근	-7.45234
적	-7.45829
▁같은	-7.46153
▁위한	-7.46768
▁북한	-7.47722
부터	-7.48744
▁20	-7.4877
▁따라	-7.49502
▁모두	-7.49886
▁가장	-7.50831
이나	-7.51459
▁때문에	-7.51539
성	-7.51864
상	-7.51968
차	-7.51992
여	-7.52628
면서	-7.52753
▁12	-7.53138
▁다른	-7.5339
수	-7.53436
▁하는	-7.5372
▁11	-7.54288
원	-7.5461
▁할	-7.54999
▁관련	-7.55165
>	-7.55296
▁말	-7.56321
스	-7.56444
회	-7.57086
2	-7.57086
정	-7.571
▁내	-7.57269
▁게	-7.576
▁데	-7.57979
▁원	-7.58257
라는	-7.58645
부	-7.59806
세	-7.60379
▁경기	-7.61146
해야	-7.6289
▁제	-7.63225
▁관계자는	-7.63835
전	-7.65915
한겨레	-7.66501
리	-7.66973
]	-7.67436
▁큰	-7.67869
및	-7.68156
▁가운데	-7.6821
▁후보	-7.68628
적인	-7.70098
장	-7.7013
▁당시	-7.70643
였다	-7.70689
제	-7.70837
▁30	-7.70992
▁것이	-7.70997
▁국내	-7.71565
분	-7.71913
▁결과	-7.71988
▁현재	-7.73192
에도	-7.7326
▁그러나	-7.73356
▁검찰	-7.73797
▁첫	-7.74043
하기	-7.74951
엔	-7.7497
비	-7.75244
▁이런	-7.75549
동	-7.75554
돼	-7.75633
▁문	-7.75893
m	-7.77055
됐다	-7.77879
라	-7.78097
▁보인다	-7.78832
▁정	-7.79056
한다	-7.8063
▁세계	-7.81263
▁된다	-7.81366
▁것을	-7.82473
될	-7.82808
했던	-7.82817
▁오	-7.82937
▁이에	-7.83138
▁이어	-7.83844
▁모	-7.84053
에선	-7.84254
하면	-7.84803
하면서	-7.84927
당	-7.84943
들은	-7.85324
든	-7.85592
미	-7.86559
처럼	-7.87163
▁후	-7.87319
▁않았다	-7.8792
이라며	-7.88234
이라는	-7.88639
어	-7.88723
▁일부	-7.89026
▁조사	-7.89142
화	-7.89639
만원	-7.89786
▁대표	-7.89953
▁아니라	-7.90228
▁민주당	-7.90953
▁시	-7.90994
▁우리	-7.91044
지만	-7.91961
1	-7.92219
▁됐다	-7.92266
▁없는	-7.92784
▁동안	-7.93246
하며	-7.93264
▁사업	-7.93482
호	-7.93704
아	-7.9438
▁미	-7.9445
▁하고	-7.94774
▁대통령	-7.94831
▁잘	-7.95852
이었다	-7.9649
▁때문이다	-7.96777
▁열린	-7.96904
▁다시	-7.96981
중	-7.97096
▁될	-7.97399
▁보고	-7.97453
▁15	-7.97902
승	-7.98243
▁경찰	-7.98504
▁자신	-7.98762
▁시즌	-7.9985
▁16	-7.999
▁국회	-7.99993
▁일	-8.00011
명이	-8.00749
▁대	-8.00808
▁않고	-8.01278
▁경제	-8.01435
▁있었다	-8.01548
적으로	-8.01618
▁해	-8.01889
용	-8.02288
▁있다는	-8.02713
형	-8.0381
▁당	-8.04095
▁수사	-8.04221
▁지역	-8.05272
▁선수	-8.05523
▁조	-8.05561
구	-8.06444
▁않은	-8.0655
▁100	-8.0715
에서는	-8.07253
점	-8.08186
▁새누리당	-8.08237
▁주	-8.08493
▁이들	-8.08818
▁19	-8.09507
▁많은	-8.09631
▁특히	-8.10217
3	-8.10304
▁지난달	-8.10567
소	-8.10625
▁대통령은	-8.10687
▁지	-8.10755
▁바	-8.11185
산	-8.11701
▁의원	-8.11955
▁18	-8.11993
▁만에	-8.1251
억원	-8.12584
▁유	-8.12676
▁사건	-8.1298
▁회장	-8.13121
▁처음	-8.13422
▁올	-8.13463
▁의원은	-8.13464
하	-8.13953
▁강	-8.14024
▁최대	-8.1408
▁직접	-8.14091
▁이를	-8.14175
▁지원	-8.15338
▁최	-8.15845
▁13	-8.15967
시간	-8.1615
▁대통령이	-8.16332
식	-8.16344
▁청와대	-8.17511
치	-8.17657
▁오후	-8.1807
씨는	-8.19395
▁보도	-8.1965
▁장	-8.19875
▁활동	-8.20031
▁시장	-8.20044
신	-8.20158
▁못	-8.20313
했지만	-8.2061
내	-8.20688
▁14	-8.20759
▁17	-8.20986
▁문제	-8.21428
▁있어	-8.21539
▁씨	-8.21737
▁받은	-8.21849
우	-8.2237
▁나	-8.22704
▁반	-8.22911
▁새	-8.22983
▁있다고	-8.23209
▁등이	-8.23228
▁알려졌다	-8.2352
▁건	-8.23646
▁팀	-8.23863
들의	-8.24465
▁달	-8.24594
보	-8.24983
했고	-8.25
▁많이	-8.25056
▁25	-8.25218
▁전체	-8.25315
법	-8.26029
단	-8.26281
▁전했다	-8.2629
▁비	-8.26843
▁가능성이	-8.27339
경	-8.27342
▁내년	-8.27868
▁따르면	-8.27895
군	-8.28247
▁평균	-8.28276
배	-8.28627
▁다	-8.2881
▁나온다	-8.28917
▁세	-8.28975
급	-8.29082
▁정책	-8.29201
관	-8.2952
▁여성	-8.29693
모	-8.29695
▁없이	-8.29877
▁교수는	-8.30237
▁규모	-8.30387
▁방안	-8.30492
▁인사	-8.30769
▁주요	-8.30835
실	-8.3091
▁계획	-8.30923
▁박근혜	-8.31158
문	-8.31175
▁(	-8.31348
권	-8.31392
▁[	-8.31395
▁신	-8.31797
석	-8.32295
▁회사	-8.32339
▁감독	-8.32808
마	-8.32948
하기로	-8.33652
▁점	-8.3366
▁학교	-8.33771
들	-8.33807
파	-8.34226
▁거	-8.3455
▁된	-8.34595
▁평가	-8.3485
▁우려	-8.35311
니	-8.35345
▁대통령의	-8.35658
년간	-8.35674
▁연	-8.35682
개월	-8.35889
안	-8.36125
▁오전	-8.36293
▁앞서	-8.36621
되는	-8.36984
▁△	-8.37427
질	-8.37493
▁있을	-8.37659
▁크게	-8.3797
▁영화	-8.38085
국	-8.38318
▁보면	-8.38348
▁정부는	-8.38362
약	-8.38441
▁국가	-8.38447
▁투자	-8.38968
▁전국	-8.3922
▁추진	-8.39287
오	-8.39322
▁양	-8.39594
간	-8.40004
▁사람	-8.40249
▁우승	-8.40552
▁한편	-8.40562
▁받고	-8.40639
▁손	-8.41014
▁만큼	-8.41097
▁대표는	-8.41162
무	-8.41324
▁간	-8.41335
▁돈	-8.41434
▁정도	-8.41704
▁기존	-8.41755
▁21	-8.41843
▁감독은	-8.41939
▁초	-8.42116
▁발표	-8.42171
하다	-8.4219
▁않는	-8.42338
▁교육	-8.42381
▁아	-8.42493
▁27	-8.42705
번	-8.42797
▁시간	-8.43166
온	-8.43751
▁높은	-8.43836
▁총리	-8.44103
▁들어	-8.4438
▁받았다	-8.4451
▁기록	-8.44718
재	-8.4482
▁23	-8.45163
운	-8.45643
영	-8.45697
▁쪽	-8.45767
▁최고	-8.45845
▁50	-8.45996
▁보	-8.46028
초	-8.46176
▁기업	-8.4649
▁관리	-8.46519
▁군	-8.46527
계	-8.46748
5	-8.4691
▁행사	-8.46939
트	-8.47016
▁추가	-8.47032
▁24	-8.47233
▁예정이다	-8.47278
▁온	-8.47322
타	-8.47336
강	-8.47647
▁서	-8.47853
▁논의	-8.48079
▁볼	-8.48296
들을	-8.48416
명을	-8.48632
새로운	-8.48709
▁약	-8.48735
▁총	-8.48812
▁대학	-8.49011
▁씨는	-8.49024
▁A	-8.49203
▁설명했다	-8.49629
▁대선	-8.49669
▁줄	-8.49929
▁영국	-8.50116
▁삼성	-8.50172
▁기술	-8.5018
▁관련해	-8.5022
층	-8.50285
4	-8.50682
▁교수	-8.51051
▁핵심	-8.51569
▁매	-8.51676
라며	-8.51755
▁국민	-8.51767
▁모습	-8.51791
▁LG	-8.52062
▁개발	-8.52136
유	-8.52278
▁남	-8.52294
물	-8.52415
▁관계	-8.5245
▁등에	-8.52563
린	-8.52612
▁정치	-8.5267
현	-8.52883
▁않다	-8.52908
km	-8.52977
에서도	-8.53049
▁계속	-8.53082
▁예산	-8.53292
▁공동	-8.53293
박	-8.53471
▁입장	-8.53756
▁사	-8.53819
▁있도록	-8.54007
▁뜻	-8.54128
▁22	-8.54595
▁공	-8.54681
▁각각	-8.54846
▁앞으로	-8.55122
[	-8.55351
이란	-8.55577
▁효과	-8.55696
▁주장했다	-8.55986
▁28	-8.55993
▁합의	-8.56022
거나	-8.56223
▁못했다	-8.56897
된다	-8.57392
▁여러	-8.57722
▁반면	-8.57752
러	-8.57791
▁26	-8.58162
▁공연	-8.58206
▁작품	-8.58301
씨	-8.58522
드	-8.58563
▁않는다	-8.58597
▁과정에서	-8.58841
▁한다는	-8.59037
▁40	-8.59233
▁부	-8.59245
▁출신	-8.59368
▁아니다	-8.59379
▁있지만	-8.59405
건	-8.59514
▁반대	-8.59766
▁두고	-8.59885
▁여야	-8.60071
길	-8.60074
양	-8.60097
▁얘기	-8.60203
명의	-8.60292
▁번	-8.60399
란	-8.60444
▁확대	-8.60469
▁영향	-8.60547
연	-8.60603
▁아직	-8.60865
▁변호사	-8.60868
▁것도	-8.61056
▁채	-8.61077
▁적	-8.61107
▁이미	-8.61216
심	-8.61288
▁사고	-8.61332
▁승리	-8.61573
▁사실상	-8.61855
▁통합	-8.61922
▁등으로	-8.61968
▁배	-8.62002
공	-8.62229
년부터	-8.62352
청	-8.62513
▁나왔다	-8.62673
▁다음	-8.62771
▁정부의	-8.62877
요	-8.62905
▁입	-8.62918
▁필요	-8.63017
▁길	-8.63387
▁가격	-8.63437
▁해외	-8.63481
살	-8.63567
▁하루	-8.63667
반	-8.63689
▁사장	-8.6371
▁집	-8.64596
▁수도	-8.64648
▁생각	-8.64864
▁역할	-8.64868
▁학생	-8.64901
▁공개	-8.6497
방	-8.65002
민	-8.65056
▁역사	-8.65121
▁의혹	-8.65228
▁장관	-8.65466
▁어떤	-8.65582
▁요구	-8.65716
▁문제가	-8.65863
기도	-8.65925
▁하나	-8.6594
▁2008	-8.66007
▁비판	-8.66148
▁다양한	-8.66181
▁공격	-8.66238
▁변화	-8.66428
▁하지	-8.66653
▁강조했다	-8.67093
▁준비	-8.67106
▁운영	-8.67199
▁대부분	-8.67283
론	-8.67406
종	-8.67534
▁대회	-8.67598
▁오바마	-8.67689
▁있고	-8.67741
▁날	-8.67843
▁제품	-8.67867
▁아닌	-8.67933
▁좋은	-8.67997
▁계획이다	-8.68206
▁열어	-8.68443
그	-8.68531
▁만나	-8.68631
하자	-8.68656
▁우	-8.68792
점을	-8.68977
▁앞두고	-8.69438
▁받아	-8.6946
▁것이라고	-8.69706
▁문제를	-8.7008
▁2009	-8.70141
▁내용	-8.70326
▁기준	-8.70478
▁사실	-8.70615
천	-8.70715
준	-8.70863
▁각	-8.70901
▁선거	-8.70948
판	-8.70988
▁같다	-8.70991
▁서울시	-8.71128
▁판매	-8.71129
▁이름	-8.71286
거	-8.71326
▁기간	-8.71583
▁많다	-8.71593
감	-8.71623
▁기대	-8.71699
▁그동안	-8.71717
▁불	-8.71963
▁마지막	-8.72065
▁시절	-8.72307
▁대신	-8.72443
▁의사	-8.72602
곳	-8.72619
▁하	-8.72693
▁구	-8.72722
▁이유	-8.73021
▁분위기	-8.73087
김	-8.73229
▁차	-8.7325
▁러시아	-8.73549
하도록	-8.7379
▁2010	-8.73856
일부터	-8.73863
▁달리	-8.74112
경기	-8.74191
▁피해	-8.74451
▁책임	-8.74521
▁않을	-8.74641
▁선	-8.74797
▁사용	-8.74822
▁정보	-8.74914
토	-8.75432
▁프랑스	-8.75609
6	-8.75657
▁방송	-8.75727
▁프로그램	-8.75883
▁돼	-8.75912
노	-8.76049
▁국제	-8.76271
▁어떻게	-8.76278
▁연구	-8.76514
일까지	-8.76577
▁위원장	-8.76889
▁차례	-8.77023
▁역시	-8.77053
한국	-8.77092
▁힘	-8.77244
▁SK	-8.77572
었다	-8.77709
되고	-8.77844
려	-8.7792
▁문화	-8.78098
▁필요하다	-8.78117
▁2011	-8.78155
▁성	-8.78168
?	-8.7819
▁선발	-8.7834
▁저	-8.78449
▁내용을	-8.78458
▁부담	-8.78541
’(	-8.79271
▁건설	-8.79382
▁야당	-8.79515
▁한나라당	-8.79745
▁인터넷	-8.79879
▁제대로	-8.79935
▁후보는	-8.79939
▁결국	-8.80023
▁일정	-8.80184
▁없었다	-8.8049
발	-8.80552
▁29	-8.80671
▁전문가들	-8.80788
▁한다고	-8.80852
하던	-8.80864
▁2012	-8.80926
직	-8.81128
▁먼저	-8.81265
▁않아	-8.81335
▁지적했다	-8.81346
▁개인	-8.81356
▁최종	-8.81441
▁살	-8.81586
릴	-8.81811
▁갖고	-8.82087
▁앞	-8.82287
▁예정	-8.82306
▁협상	-8.82359
▁명	-8.82403
▁노	-8.82433
▁홍	-8.82538
▁사회	-8.82856
▁이유로	-8.82921
우리	-8.83107
▁따른	-8.83157
▁지지	-8.83277
르	-8.83384
태	-8.8349
행	-8.83598
▁대응	-8.83806
▁원내대표	-8.83897
생	-8.8396
▁있기	-8.84059
▁부산	-8.84104
9	-8.84151
▁후보자	-8.84154
▁처리	-8.84176
희	-8.84177
금	-8.84276
▁수출	-8.84323
▁되는	-8.84329
▁조직	-8.84725
▁직원	-8.84835
▁성장	-8.84938
▁기회	-8.85006
▁의미	-8.85009
▁열리는	-8.85182
▁2000	-8.85195
▁혐의로	-8.8545
는데	-8.85551
▁실제	-8.85574
▁북한이	-8.85935
▁대상으로	-8.86016
▁기	-8.86077
▁상태	-8.86083
난	-8.86097
▁나타났다	-8.8627
▁재	-8.86321
▁문재인	-8.86385
레	-8.86838
▁중인	-8.86888
▁공식	-8.87148
▁대출	-8.87161
▁강화	-8.87169
▁경쟁	-8.87197
▁연속	-8.87237
▁현장	-8.8736
집	-8.87667
▁남자	-8.87885
▁불법	-8.87942
루	-8.87954
▁법	-8.88001
▁방문	-8.88091
▁단	-8.88244
▁확인	-8.88317
▁트럼프	-8.88329
있게	-8.88482
▁생산	-8.88614
)'	-8.88637
남	-8.88672
▁찾아	-8.88729
▁사진	-8.88761
▁이용	-8.88762
학	-8.8881
병	-8.88858
▁이명박	-8.88906
▁상대로	-8.89075
▁못한	-8.89124
▁무	-8.89424
▁해당	-8.89467
▁놓고	-8.8947
되지	-8.89601
로부터	-8.89611
▁검토	-8.89633
▁결정	-8.89885
▁2013	-8.90034
▁업무	-8.90211
두	-8.90299
저	-8.904
데	-8.90437
▁윤	-8.90622
▁서울대	-8.90703
프	-8.9073
▁생활	-8.90733
창	-8.90814
▁대변인	-8.90969
▁나섰다	-8.90984
▁책	-8.91014
▁것이라	-8.91045
▁속	-8.91251
▁각종	-8.9126
씩	-8.91274
크	-8.91281
지역	-8.91299
▁임	-8.91325
▁만들어	-8.91325
▁논란	-8.9136
▁계약	-8.91543
▁인상	-8.92111
▁사태	-8.92329
▁사람이	-8.9233
월부터	-8.92418
▁가족	-8.92434
▁수준	-8.92543
▁마	-8.92688
▁60	-8.93208
▁소속	-8.93277
▁정도로	-8.93335
▁만든	-8.93338
마다	-8.93398
▁독일	-8.93579
해졌다	-8.93743
▁참여	-8.9395
▁인도	-8.94031
▁상대	-8.94089
▁지금	-8.94101
들에게	-8.94367
▁설치	-8.94446
▁환자	-8.94558
▁개정	-8.9473
▁작년	-8.9474
▁2007	-8.94746
▁논란이	-8.94903
A	-8.94989
광	-8.95058
▁언론	-8.95213
▁나온	-8.95459
▁도입	-8.95462
▁나라	-8.9556
▁있던	-8.95568
▁피	-8.9557
패	-8.95586
▁법안	-8.95608
▁아파트	-8.95612
▁알	-8.95616
▁규제	-8.95632
▁미국의	-8.9582
철	-8.95857
포인트	-8.9594
▁황	-8.95954
▁이전	-8.95976
▁위기	-8.96033
▁제재	-8.96132
▁후보가	-8.96147
▁수밖에	-8.9635
▁왔다	-8.96471
하거나	-8.96619
▁그런	-8.96794
▁어느	-8.96877
▁남북	-8.96877
▁아니냐	-8.97444
▁인기	-8.9747
▁밤	-8.97582
▁연장	-8.97692
▁여부	-8.97765
으며	-8.97781
더	-8.97963
▁더욱	-8.98168
▁목소리	-8.98258
▁정권	-8.98293
▁처음으로	-8.98438
▁어	-8.98483
팀	-8.98582
▁교사	-8.98894
▁업체	-8.98926
▁오는	-8.99281
▁회의	-8.99318
▁아들	-8.9937
사진	-8.99523
하라	-8.99608
▁방침	-8.99718
7	-8.99723
▁삼성전자	-8.99907
설	-8.99909
▁사실을	-8.99924
▁복지	-8.99985
▁의원이	-9.00005
▁대형	-9.00025
포	-9.00067
교육	-9.00101
▁측	-9.00408
▁시대	-9.00452
▁보였다	-9.00467
8	-9.00586
▁대화	-9.00671
▁세월호	-9.00687
▁이렇게	-9.00807
▁전화	-9.00822
▁부동산	-9.00903
하겠다	-9.00959
▁상황에서	-9.01075
~	-9.01106
▁31	-9.01156
▁시행	-9.01539
S	-9.01578
장은	-9.0159
▁중국의	-9.01657
▁거쳐	-9.017
▁해야	-9.01709
▁금리	-9.01714
▁집중	-9.01879
▁2014	-9.01906
역	-9.02004
▁상황이	-9.02096
▁작가	-9.02267
▁올림픽	-9.02267
코	-9.0244
▁매출	-9.02452
▁유럽	-9.02455
별	-9.02508
뿐	-9.02526
▁검사	-9.02547
▁유지	-9.02548
▁가치	-9.02764
▁외교	-9.02934
▁자체	-9.02981
▁비해	-9.03108
▁주변	-9.03273
예	-9.03328
▁대해서	-9.03339
▁발	-9.03341
▁차이	-9.03414
▁선수들	-9.03494
▁1000	-9.03553
▁대비	-9.03742
▁아이	-9.03817
교	-9.04283
▁조치	-9.04409
▁뿐	-9.04464
▁너무	-9.04512
▁관심을	-9.0455
위를	-9.04694
대로	-9.0473
디	-9.0483
▁없어	-9.04885
대강	-9.05087
▁구성	-9.0524
▁어렵다	-9.05546
▁분야	-9.05559
년대	-9.05616
▁의원들	-9.05776
▁월드컵	-9.05781
▁높다	-9.05823
▁크다	-9.05872
▁전략	-9.06183
열	-9.06213
▁배우	-9.06269
▁공무원	-9.06279
했으며	-9.06421
▁진출	-9.06707
▁유엔	-9.06738
학교	-9.06753
매우	-9.06799
하겠다는	-9.06855
▁듯	-9.06863
였던	-9.06874
▁롯데	-9.07026
▁시작했다	-9.07063
라도	-9.07083
▁부분	-9.0726
▁마음	-9.07457
▁이야기	-9.07528
도록	-9.07538
했으나	-9.08022
▁삶	-9.08078
▁몇	-9.0811
▁축구	-9.08137
▁성공	-9.08296
력	-9.08324
▁국방부	-9.0848
/	-9.08541
▁필요한	-9.08628
▁개혁	-9.08666
▁반발	-9.08674
▁사퇴	-9.08881
▁주택	-9.08896
▁외국인	-9.0892
카	-9.08966
터	-9.08979
▁분석	-9.09018
▁측은	-9.09164
▁본	-9.09206
▁열	-9.09293
▁받을	-9.09321
▁직후	-9.09324
▁걸	-9.0935
▁예상	-9.09391
▁서비스	-9.09466
한다는	-9.09534
t	-9.09554
▁의견을	-9.09676
▁스스로	-9.09779
▁두산	-9.10029
▁가지	-9.10041
▁구조	-9.10073
▁신청	-9.1009
▁좀	-9.10094
▁진행	-9.10235
위원회	-9.10293
▁전환	-9.10387
▁산	-9.10404
▁금융	-9.10475
▁나오고	-9.10575
속	-9.10634
▁눈	-9.10663
볼	-9.10746
▁사람들	-9.1098
▁대상	-9.11002
▁일자리	-9.11017
▁지적이	-9.11103
▁우선	-9.1132
▁학생들	-9.11397
▁개	-9.11515
그룹	-9.11668
▁연기	-9.11669
▁훈련	-9.11729
▁갈	-9.11803
으면	-9.11814
통	-9.11922
▁현	-9.11963
▁위반	-9.11978
시장	-9.12006
씨가	-9.12086
▁경영	-9.12254
함	-9.12263
▁동	-9.12264
▁이달	-9.12303
되면	-9.12428
중국	-9.12462
▁조성	-9.12483
▁대북	-9.12499
▁보수	-9.12524
▁200	-9.12531
▁최초	-9.1257
▁셈이	-9.12618
▁협력	-9.12677
▁원을	-9.12698
▁상황	-9.12765
▁사례	-9.12779
▁성과	-9.12853
C	-9.12854
▁음악	-9.12857
▁단체	-9.12858
▁시작	-9.12881
▁일반	-9.12982
▁국정원	-9.13013
▁발전	-9.13021
▁전날	-9.13151
▁사상	-9.13211
▁과정	-9.13246
▁못하고	-9.1339
▁경기도	-9.1343
▁사실이	-9.1343
5000	-9.13488
사업	-9.13615
인데	-9.13623
▁자금	-9.13676
▁안전	-9.13835
)’	-9.14008
▁노력	-9.1408
▁여자	-9.14095
▁안에	-9.14238
▁거래	-9.14367
▁발표했다	-9.14529
히려	-9.14538
▁브랜드	-9.14676
▁적극적	-9.14721
▁사업을	-9.14735
▁건물	-9.14821
(1	-9.14842
▁설립	-9.14924
▁보호	-9.14968
▁받는	-9.15036
▁그룹	-9.15052
▁정치적	-9.15142
▁구체적	-9.15288
▁바로	-9.15347
▁환경	-9.15442
▁광고	-9.15452
▁배치	-9.15455
▁대표팀	-9.15481
년까지	-9.15505
▁낸	-9.15617
편	-9.15815
▁의지	-9.15946
▁자료	-9.16183
▁수술	-9.16474
입	-9.16788
▁전문가	-9.16973
▁쉽	-9.16979
센터	-9.17047
등	-9.17103
이자	-9.17134
▁자	-9.17391
▁포함	-9.17502
▁실제로	-9.17523
▁투수	-9.17534
▁제한	-9.17537
▁500	-9.17566
▁갈등	-9.17575
▁수석	-9.17612
▁경선	-9.17639
▁전시	-9.17649
근	-9.17666
▁서로	-9.17779
▁폐지	-9.17817
▁이하	-9.17876
D	-9.17897
임	-9.17929
피	-9.17961
▁선택	-9.18114
▁이제	-9.18184
본	-9.18314
후	-9.18358
▁총리는	-9.18409
량	-9.1842
▁아시아	-9.18522
▁미래	-9.18576
▁소	-9.18582
▁과거	-9.18591
▁병원	-9.186
▁상	-9.18627
업체	-9.18684
▁글	-9.18711
▁인천	-9.18764
기를	-9.18828
▁보고서	-9.18831
▁아이들	-9.18842
▁절차	-9.18882
▁발표한	-9.18894
▁2015	-9.18985
▁소송	-9.19299
▁대표가	-9.19331
∼	-9.19362
▁개선	-9.19408
▁스마트폰	-9.19587
▁북	-9.19735
▁반응	-9.19763
▁회복	-9.1977
표	-9.19813
▁여전히	-9.20001
▁김씨	-9.20068
올	-9.20085
▁일이	-9.20088
▁송	-9.20129
▁협의	-9.20187
▁비판했다	-9.2028
복	-9.20322
▁나선	-9.20352
▁기능	-9.20428
▁글로벌	-9.20463
▁발사	-9.20471
▁출전	-9.20584
▁곳	-9.20604
▁태도	-9.20679
▁규정	-9.2072
망	-9.20749
▁한반도	-9.20767
▁적용	-9.20804
여명	-9.20891
▁동시에	-9.20966
▁투표	-9.2107
▁고용	-9.21384
▁실패	-9.21421
이지만	-9.2152
▁물론	-9.21578
▁전망이	-9.21626
습니다	-9.21634
▁제도	-9.21664
▁노조	-9.21687
▁민간	-9.2179
친	-9.21794
▁시각	-9.21818
달	-9.22021
주년	-9.221
▁상품	-9.22159
분기	-9.22208
▁아베	-9.22218
20	-9.22295
바	-9.22377
불	-9.22411
▁총선	-9.22497
▁올랐다	-9.22574
▁판단	-9.22707
▁300	-9.2271
▁중심으로	-9.22801
▁곧	-9.2288
10	-9.22954
▁성적	-9.22964
▁씨가	-9.23017
▁광주	-9.23114
▁싶다	-9.23159
▁꿈	-9.23175
회사	-9.23187
▁도시	-9.23242
▁중요한	-9.23373
하겠다고	-9.23477
▁권	-9.23527
▁비롯해	-9.23641
명으로	-9.23707
▁비교	-9.23723
▁홈런	-9.23744
▁주민	-9.23774
명은	-9.23778
▁만난	-9.23951
각	-9.24044
▁마련	-9.24254
하기도	-9.24284
안타	-9.24406
▁고민	-9.24512
▁한화	-9.24536
▁전문	-9.24626
백	-9.2463
▁차량	-9.24656
관한	-9.24824
▁자리	-9.24863
▁상승	-9.24866
▁주장	-9.25024
▁심	-9.25103
▁주로	-9.25343
▁당국	-9.25378
▁중이다	-9.25457
▁드라마	-9.256
순	-9.25627
▁냈다	-9.25712
▁있으며	-9.25737
전혀	-9.25913
▁해도	-9.26066
▁정당	-9.26221
▁어려운	-9.26248
▁지도부	-9.26426
북	-9.26471
조원	-9.26503
▁압박	-9.26509
▁새로	-9.26548
▁제안	-9.26561
년에	-9.26795
▁대기업	-9.26823
으로부터	-9.27044
환	-9.27178
▁주는	-9.27218
▁중심	-9.27237
평	-9.27319
▁또는	-9.27347
▁확보	-9.27391
▁보장	-9.2746
▁노래	-9.27543
▁아버지	-9.27687
▁판결	-9.27782
▁개최	-9.27894
▁방법	-9.279
▁은행	-9.27995
▁위	-9.27998
▁번째	-9.28084
▁재정	-9.28218
▁밝힌	-9.28313
▁찾	-9.28321
갈	-9.28465
▁활성화	-9.28554
▁없다는	-9.28603
▁백	-9.28631
▁금	-9.28653
▁지금까지	-9.2869
수록	-9.28711
업	-9.28732
▁내부	-9.29029
▁지적	-9.29121
▁선언	-9.29146
▁편	-9.29201
>(	-9.29291
▁비율	-9.29325
▁2006	-9.29397
▁자유	-9.29447
▁집회	-9.29486
▁불리	-9.29572
▁나서	-9.29675
▁설명	-9.2968
▁대규모	-9.29694
티	-9.29751
▁대구	-9.29786
▁사전	-9.29893
▁혐의	-9.29908
월에	-9.29982
▁피해자	-9.30032
▁통한	-9.30058
▁핵	-9.30157
▁가진	-9.30286
▁어머니	-9.30336
▁소리	-9.30344
▁기소	-9.30345
▁드러났다	-9.30545
▁지시	-9.30598
했을	-9.30659
▁대법원	-9.30928
▁부인	-9.30933
정책	-9.30949
▁상황을	-9.31113
▁제출	-9.31166
▁이번에	-9.31384
▁고위	-9.31433
▁포함해	-9.3145
▁“(	-9.31519
▁덧붙	-9.31596
▁방	-9.31623
하지만	-9.31629
▁진	-9.3169
힌	-9.31791
▁회장이	-9.31825
▁뉴욕	-9.31831
▁만드는	-9.31867
▁사이	-9.31888
▁인권	-9.32284
체	-9.32332
▁여	-9.32476
▁시민	-9.32499
▁중단	-9.32542
▁역대	-9.32558
▁사는	-9.32613
▁표현	-9.3264
▁미사일	-9.32653
(3	-9.32685
▁무대	-9.32716
▁안보	-9.32779
▁금지	-9.32839
▁기본	-9.32901
지는	-9.32953
주의	-9.32969
▁구속	-9.33105
▁B	-9.33133
왔다	-9.33136
▁구단	-9.33142
▁내용이	-9.33197
▁정상회담	-9.33322
▁시험	-9.33338
▁총장	-9.33391
매	-9.33582
▁지급	-9.33677
▁아무	-9.33871
▁열고	-9.33895
▁제작	-9.33929
▁파	-9.33953
▁대통령과	-9.33957
만명	-9.33961
▁목표	-9.33976
관리	-9.33997
▁방식으로	-9.34041
▁자신이	-9.34328
▁핵실험	-9.3435
▁전쟁	-9.34443
▁보니	-9.34521
▁다만	-9.3457
▁예	-9.34665
30	-9.34704
▁공약	-9.34713
▁있는데	-9.34808
▁테러	-9.35081
▁안철수	-9.35159
▁처벌	-9.35224
▁베트남	-9.35256
학년	-9.35372
▁자동차	-9.35443
▁조선	-9.35458
▁시위	-9.35485
▁○	-9.35576
줄	-9.35634
▁공천	-9.35693
별로	-9.35713
▁통과	-9.35831
▁양국	-9.35895
작	-9.35946
이라	-9.35951
▁기자회견	-9.35965
▁활용	-9.36035
▁출범	-9.36076
억원을	-9.36081
▁넘어	-9.36285
▁알고	-9.3638
&	-9.36481
▁가구	-9.3649
▁참석	-9.3653
▁공급	-9.36573
▁프로	-9.36639
▁네	-9.36643
▁들	-9.36721
▁공사	-9.36728
▁또한	-9.36746
▁방향	-9.36841
▁허용	-9.36959
규	-9.37113
▁주목	-9.3712
▁특별	-9.37134
▁수입	-9.37319
다른	-9.37342
▁대책	-9.37455
런	-9.37481
골	-9.37501
경제	-9.37595
▁TV	-9.37752
해온	-9.37781
채	-9.37863
음	-9.37925
범	-9.37966
▁정상	-9.38016
▁연간	-9.38056
겠다	-9.38081
▁가입	-9.38177
▁산업	-9.38177
▁현지	-9.38178
▁시설	-9.38395
▁감사	-9.38413
▁적극	-9.38667
▁시기	-9.38672
입니다	-9.38724
▁명이	-9.38817
개국	-9.38842
▁70	-9.38911
▁인수	-9.38959
▁쓴	-9.39118
▁공장	-9.39119
▁그리고	-9.39207
▁영어	-9.39229
▁장애인	-9.39258
▁많아	-9.39296
개를	-9.39404
▁난	-9.39454
서울	-9.39561
▁완전	-9.39573
권을	-9.39612
▁나와	-9.39651
증	-9.39663
이닝	-9.39726
▁것과	-9.39837
산업	-9.39871
▁딸	-9.39887
긴	-9.39912
▁부상	-9.39937
▁선정	-9.40028
쪽	-9.40079
▁위협	-9.40344
cm	-9.4035
▁예상된다	-9.40362
▁그대로	-9.40507
▁현대	-9.40573
▁지정	-9.40589
▁카드	-9.40663
▁만	-9.40866
출	-9.40872
▁장관은	-9.40913
▁제주	-9.40921
져	-9.40994
▁연극	-9.41002
▁강한	-9.41026
▁재판부	-9.41053
▁자료를	-9.4106
▁취임	-9.4112
현지	-9.41138
▁맞춰	-9.41324
▁때문	-9.4137
일본	-9.41432
▁끝	-9.41494
▁이사장	-9.41507
▁넘는	-9.41527
차례	-9.41532
▁심사	-9.41693
▁물	-9.41712
▁리	-9.41717
▁훨씬	-9.41821
가량	-9.41864
▁나머지	-9.41872
▁비리	-9.41878
액	-9.41892
류	-9.42137
들과	-9.42177
▁인식	-9.42184
즈	-9.42204
▁이해	-9.42218
▁세금	-9.42278
억달러	-9.42363
리그	-9.42387
▁에너지	-9.42407
▁작은	-9.42512
▁야권	-9.42605
해왔다	-9.42746
▁무기	-9.42775
▁원인	-9.43016
▁차관	-9.43059
미국	-9.431
▁사람은	-9.43129
▁청소년	-9.43149
▁행동	-9.43172
▁취소	-9.43184
기업	-9.43224
▁기업들	-9.43289
▁임명	-9.43303
▁비롯한	-9.43364
찬	-9.43382
날	-9.43402
되면서	-9.43782
▁이미지	-9.43791
▁회담	-9.43919
▁매각	-9.43968
▁보는	-9.44023
▁정확	-9.44029
▁도발	-9.44064
▁관심이	-9.44081
▁변	-9.44218
▁달라	-9.44286
▁여당	-9.44369
어요	-9.44421
해서	-9.44449
▁일을	-9.44472
▁발언	-9.44487
▁앞에서	-9.44494
▁주식	-9.44632
▁보내	-9.44742
▁돌	-9.4495
▁사이에	-9.45038
▁프로야구	-9.45055
▁조처	-9.45068
▁자리를	-9.45083
윤	-9.45249
이번	-9.45351
위에	-9.45442
까	-9.45501
달러	-9.45537
단체	-9.45745
낸	-9.45775
보다는	-9.45778
▁몸	-9.45787
▁가능성을	-9.45809
▁운동	-9.45911
사회	-9.45927
▁약속	-9.45987
▁올라	-9.45994
▁K	-9.46066
▁받지	-9.46154
▁떠나	-9.46217
▁조정	-9.46234
(2	-9.46506
이던	-9.46522
▁낮은	-9.46544
▁활약	-9.46902
키	-9.46929
▁왜	-9.46991
▁호	-9.4701
▁능력	-9.47011
▁뮤지컬	-9.47107
▁사회적	-9.47212
▁신고	-9.47232
국민	-9.47261
▁모델	-9.4727
▁고교	-9.47332
▁거리	-9.47425
▁여론조사	-9.47435
▁타	-9.47523
▁여행	-9.47526
네	-9.47592
▁교체	-9.47603
▁취업	-9.47658
▁하면	-9.47659
▁도전	-9.47678
울	-9.4768
절	-9.47685
▁계열사	-9.47689
▁임금	-9.47758
했다고	-9.47922
▁바탕	-9.48005
▁마무리	-9.48008
s	-9.48134
▁절반	-9.48142
너	-9.48161
▁온라인	-9.48168
▁치료	-9.48178
▁팔	-9.48215
▁특정	-9.48215
▁않으면	-9.48344
▁거부	-9.485
▁오른	-9.48558
▁원장	-9.48566
▁못하는	-9.48592
▁부문	-9.48597
▁행위	-9.48603
▁청년	-9.48645
▁그런데	-9.48696
목	-9.48773
▁전력	-9.48798
탄	-9.48812
▁경	-9.48837
들도	-9.48845
말	-9.48854
이었던	-9.48951
▁체제	-9.48986
▁희망	-9.48999
▁주민들	-9.49
▁적이	-9.49035
변	-9.49065
▁수익	-9.49077
▁맞아	-9.49085
▁외	-9.49222
▁전망	-9.4924
▁수도권	-9.49439
▁도움이	-9.49492
▁중국이	-9.49509
▁최소	-9.49708
▁경쟁력	-9.49803
지원	-9.49851
했는데	-9.49893
▁보기	-9.49924
▁근무	-9.49997
▁전북	-9.50066
▁남성	-9.50156
▁없다고	-9.50284
▁50%	-9.50431
새	-9.5046
▁통화	-9.50462
졌다	-9.50529
▁인터뷰에서	-9.50574
▁쉽지	-9.50642
▁소득	-9.50674
▁확인됐다	-9.50761
▁많았다	-9.50775
▁혜택	-9.50799
조사	-9.50806
▁개입	-9.50841
락	-9.50887
▁삼	-9.50889
둔	-9.50981
▁경기에서	-9.51011
▁나이	-9.51031
▁이동	-9.51127
▁헌법	-9.51145
▁상당	-9.51163
죠	-9.51181
봉	-9.51198
▁좋다	-9.51228
▁통신	-9.51291
하려는	-9.51359
▁원칙	-9.51528
▁방식	-9.51549
▁못해	-9.516
▁했던	-9.51609
성을	-9.51705
▁개막	-9.51714
▁들고	-9.51737
▁없	-9.5182
▁애	-9.51945
▁치	-9.52001
▁꼭	-9.52005
▁천	-9.52008
문화	-9.52019
▁이와	-9.5211
▁기준으로	-9.52194
▁달러	-9.52311
▁비슷한	-9.5233
차전	-9.52372
▁정보를	-9.52478
▁부진	-9.52494
▁단일화	-9.52644
▁해결	-9.52704
냐	-9.52714
시즌	-9.52716
▁법원	-9.52724
▁되고	-9.5285
▁해석	-9.52932
▁재판	-9.52943
▁선두	-9.53007
▁수비	-9.53088
조차	-9.53177
▁수요	-9.53199
▁전에	-9.53224
항	-9.53231
이며	-9.5326
▁인간	-9.5328
▁허	-9.53312
▁관계자	-9.53379
▁데다	-9.53411
▁담은	-9.5346
▁부족	-9.53538
▁목	-9.53637
▁인근	-9.53673
▁사람들이	-9.53712
▁시간이	-9.53752
▁부처	-9.53774
▁유명	-9.53783
▁말이	-9.53938
▁중소기업	-9.54007
▁지분	-9.54051
▁소비	-9.5407
▁기록했다	-9.54084
▁의장	-9.54181
▁향후	-9.54193
▁원전	-9.54224
▁20%	-9.54238
정부	-9.54286
▁검찰이	-9.54312
밖에	-9.54457
▁자기	-9.54562
▁담당	-9.54587
▁인하	-9.54589
▁늘었다	-9.54608
▁법률	-9.54642
▁아내	-9.54705
▁지구	-9.54732
결	-9.55028
▁시도	-9.55039
▁기자	-9.55126
▁둘러싼	-9.55139
▁내놓	-9.55145
▁접촉	-9.55303
▁법무부	-9.55322
▁때까지	-9.55404
▁어린이	-9.55428
▁소재	-9.55458
▁분	-9.55556
▁건강	-9.55571
▁노인	-9.55665
▁어려움	-9.5571
▁요구했다	-9.55739
▁평	-9.55792
▁수업	-9.55801
▁혐의를	-9.55853
▁추천	-9.55917
▁독립	-9.56151
▁디자인	-9.56172
▁임기	-9.56253
▁해명	-9.56303
▁그림	-9.56393
▁사망	-9.56403
▁강제	-9.56447
▁검증	-9.56456
▁거듭	-9.56717
▁사과	-9.56875
▁문제는	-9.56959
▁충돌	-9.56976
했다는	-9.56982
▁고객	-9.56986
기로	-9.56987
▁따	-9.56988
얼마나	-9.57021
▁등에서	-9.57023
▁증가	-9.57194
▁현실	-9.57206
▁외교부	-9.57261
▁되면	-9.5729
▁신뢰	-9.57309
▁젊은	-9.5734
K	-9.57382
▁자주	-9.57448
분의	-9.57483
▁지방	-9.5753
▁유치	-9.57578
▁개편	-9.57591
▁진술	-9.57709
R	-9.57714
▁포함한	-9.57815
G	-9.57947
▁통	-9.57985
▁노동자	-9.57986
▁같이	-9.58029
훈	-9.58034
록	-9.58091
▁남아	-9.58171
▁분석이	-9.58228
왕	-9.58235
▁끝난	-9.58249
▁2005	-9.58281
▁속도	-9.58322
▁제공	-9.58328
▁홍보	-9.5833
▁재산	-9.5834
▁요즘	-9.5836
▁말한다	-9.5836
곡	-9.58367
▁타고	-9.58455
▁직원들	-9.58501
▁게임	-9.58579
▁설	-9.58638
▁한국인	-9.58667
▁했지만	-9.58678
만달러	-9.58686
▁친구	-9.58766
▁소설	-9.58969
명과	-9.58972
▁막	-9.59019
▁질문에	-9.59026
림	-9.59046
▁개정안	-9.59117
▁행정	-9.59122
▁출마	-9.59134
▁범죄	-9.59197
▁찬성	-9.59249
▁타격	-9.5939
▁되지	-9.5943
▁청구	-9.59431
▁자격	-9.59435
▁보여주	-9.59545
▁우리나라	-9.59573
▁제기	-9.59628
▁미군	-9.59678
▁담	-9.59765
▁하기	-9.59941
▁교육부	-9.59971
▁준	-9.60089
▁보이고	-9.60095
▁커지	-9.60192
정치	-9.60258
▁승부	-9.60269
▁등록	-9.60299
여명이	-9.60378
숙	-9.60422
▁요청	-9.60451
▁잡	-9.60455
▁것에	-9.60482
▁겸	-9.60505
▁끝에	-9.6056
▁선고	-9.60563
▁최고의	-9.60648
▁가능한	-9.60653
▁캠프	-9.60708
▁이들이	-9.60765
▁꾸준	-9.60784
정보	-9.60817
▁실험	-9.60889
돌	-9.60922
▁자산	-9.60938
▁문제에	-9.61077
▁울산	-9.61203
병원	-9.6122
▁빚	-9.61311
▁인구	-9.6134
▁밝혀	-9.61363
른	-9.61387
▁채용	-9.61442
위로	-9.61482
국가	-9.615
▁국민의당	-9.61513
▁긴장	-9.61637
T	-9.61644
▁외부	-9.61738
▁서울시장	-9.61741
▁신규	-9.61793
▁완화	-9.61795
▁본격적	-9.61798
▁긴급	-9.61842
▁의심	-9.61908
▁지원을	-9.62036
▁400	-9.62105
▁당내	-9.62275
겠다는	-9.6228
▁감독이	-9.6228
▁비용	-9.62301
▁국회에서	-9.62518
주기	-9.62521
▁범위	-9.62561
▁들었다	-9.62578
▁박사	-9.62669
▁세상	-9.62723
▁확정	-9.62741
2000	-9.62948
령	-9.63026
▁교과서	-9.6303
갑	-9.63051
▁고려	-9.63108
▁참사	-9.63167
공사	-9.63218
▁안팎	-9.6323
▁관계자들	-9.63272
▁노무현	-9.63322
▁자녀	-9.63322
▁초반	-9.63513
▁선수들이	-9.63523
▁프로젝트	-9.63526
▁더불어민주당	-9.63552
▁대결	-9.63601
▁기반	-9.63661
▁군사	-9.63688
▁유출	-9.63782
▁없고	-9.63818
▁시작한	-9.63851
▁이스라엘	-9.6387
▁역	-9.63899
▁권력	-9.63899
P	-9.63999
▁사무총장	-9.64074
▁리그	-9.64099
▁경남	-9.6416
▁■	-9.64283
▁2004	-9.64321
▁가는	-9.64349
처	-9.64372
▁의무	-9.64497
▁대해서도	-9.64623
▁도움	-9.64695
세기	-9.64701
▁변경	-9.6473
▁않았	-9.64818
▁인터뷰	-9.64909
▁기관	-9.64917
▁컴퓨터	-9.64982
▁발굴	-9.651
▁전면	-9.6517
▁천안함	-9.65182
정부가	-9.65212
협회	-9.65303
▁걸쳐	-9.65335
▁감	-9.65423
▁추	-9.65467
▁하는데	-9.6547
▁전달	-9.65504
18	-9.65586
▁협조	-9.6559
▁현대차	-9.65616
▁인력	-9.65628
곤	-9.6582
▁실적	-9.6592
▁않겠다	-9.6596
▁열었다	-9.65988
▁이용해	-9.65995
▁시인	-9.66112
▁명의	-9.66175
▁도로	-9.6623
▁당장	-9.66301
▁S	-9.6638
▁사무실	-9.6643
▁발생한	-9.66474
▁장관이	-9.66483
▁축소	-9.66524
▁가까운	-9.66598
▁국정	-9.6671
▁미국과	-9.66733
으나	-9.66745
▁촬영	-9.66756
▁지사	-9.6678
▁서비스를	-9.6682
▁때도	-9.66885
▁부회장	-9.66909
▁평화	-9.66945
▁차원에서	-9.66961
▁공부	-9.67017
거리	-9.67113
kg	-9.6724
▁불러	-9.67264
▁둘	-9.673
▁출시	-9.67302
▁증거	-9.67411
시설	-9.67459
▁강력	-9.67465
드시	-9.6758
합	-9.67598
덕	-9.67598
▁열린다	-9.67632
▁저녁	-9.67676
▁회장의	-9.67828
11	-9.67865
이어서	-9.67934
▁의원의	-9.6794
▁죽	-9.67954
▁외국	-9.68142
▁실	-9.68163
외	-9.68196
▁메시지	-9.68201
품	-9.68226
▁목적	-9.68355
한테	-9.68375
▁방침이	-9.68426
21	-9.68499
▁이른바	-9.6859
0	-9.68599
▁사드	-9.68608
▁기업의	-9.68657
▁오래	-9.68734
▁감소	-9.68734
됐던	-9.68739
▁성향	-9.6874
▁연봉	-9.68793
언	-9.688
았다	-9.68835
▁취지	-9.68913
▁투입	-9.68969
▁지나	-9.69037
▁부실	-9.691
▁위험	-9.69227
▁점에서	-9.69242
▁넘게	-9.69245
▁눈에	-9.69246
▁관광객	-9.69282
▁잃	-9.69427
▁맞는	-9.69432
▁브라질	-9.69445
▁키	-9.69478
▁단속	-9.69485
▁해서	-9.69523
북한	-9.69632
▁예술	-9.69782
▁불안	-9.69813
a	-9.69899
▁표	-9.69932
▁단계	-9.69957
▁올렸다	-9.70064
려는	-9.70111
래	-9.70162
▁중국은	-9.70188
▁전용	-9.70257
시켜	-9.70526
▁모임	-9.70585
▁내고	-9.70598
▁스포츠	-9.70643
:	-9.70679
40	-9.70704
▁시리아	-9.7071
총	-9.7071
▁주가	-9.708
▁쪽으로	-9.70803
▁형사	-9.70805
▁발생	-9.70827
▁분석했다	-9.70855
▁놓	-9.70876
▁계기로	-9.70887
▁초청	-9.70921
느냐	-9.70964
▁하며	-9.70972
▁추가로	-9.7099
인지	-9.70999
▁의혹이	-9.71057
▁타자	-9.71111
하려	-9.71149
▁별	-9.71207
금융	-9.7122
▁가능	-9.7122
시켰다	-9.71222
암	-9.7124
▁강남	-9.71264
▁결론	-9.71271
▁맞서	-9.71288
▁옷	-9.71304
▁선임	-9.71319
필	-9.71329
▁기부	-9.71353
듯	-9.71369
▁없을	-9.71371
▁나올	-9.71383
번째	-9.71408
회의	-9.71412
대회	-9.71637
▁나오는	-9.71653
▁머리	-9.71745
▁생각한다	-9.71812
▁적지	-9.71837
▁올리	-9.71914
▁안정	-9.72031
TV	-9.72047
추	-9.72122
▁10%	-9.72159
▁후보자는	-9.72191
▁보이는	-9.72368
위원장	-9.72383
▁강력한	-9.72406
▁둔	-9.72508
▁최고위원	-9.72508
면서도	-9.72513
▁빨리	-9.7252
▁있었던	-9.72547
▁중요하다	-9.72565
▁관객	-9.72713
관계	-9.7283
▁암	-9.72841
책	-9.7293
▁이르는	-9.72992
▁경험	-9.73078
칠	-9.73179
장을	-9.733
▁소통	-9.73393
▁찍	-9.73417
돈	-9.73434
▁비밀	-9.73445
▁조금	-9.73467
가구	-9.73493
‘	-9.73507
▁하면서	-9.73563
▁대한민국	-9.73699
버	-9.73703
료	-9.73888
▁버락	-9.7389
학과	-9.73917
자는	-9.73924
▁후반	-9.74068
▁이집트	-9.74069
▁재개	-9.74184
측	-9.7422
▁확산	-9.74224
했기	-9.7432
▁나무	-9.74322
▁야구	-9.74325
▁인한	-9.74402
▁하락	-9.74459
▁도쿄	-9.74514
M	-9.74604
짜리	-9.74609
▁충분	-9.74657
▁맡은	-9.74709
▁조건	-9.74733
▁폭	-9.74797
▁분쟁	-9.74801
영화	-9.74821
▁찾는	-9.74872
▁사랑	-9.74921
▁구축	-9.74942
촌	-9.75048
▁맡고	-9.7518
▁비난	-9.7527
워	-9.75312
세계	-9.75324
▁민주통합당	-9.7534
▁얻	-9.75378
브	-9.75393
▁철저	-9.754
▁전통	-9.75453
(5	-9.75461
▁주최	-9.75524
▁신문	-9.75539
▁세대	-9.75859
▁시스템	-9.75914
▁되	-9.75978
▁관련한	-9.76028
▁이란	-9.76099
율	-9.76148
막	-9.76163
▁올린	-9.76395
▁골	-9.7644
▁90	-9.76448
▁기사	-9.76471
▁땅	-9.76473
▁침해	-9.76565
▁마을	-9.76579
▁국민의	-9.76642
▁FTA	-9.76702
▁가까이	-9.76764
▁스타	-9.76847
▁대표와	-9.76913
▁강경	-9.76927
▁선출	-9.7693
▁지휘	-9.76949
▁가정	-9.76968
▁공간	-9.77037
▁중앙	-9.77178
자가	-9.77179
▁만들	-9.77187
▁한계	-9.77189
▁세력	-9.77206
랑	-9.77211
▁결정을	-9.77364
▁정부와	-9.77379
기에	-9.77394
방송	-9.77406
투	-9.77547
▁애초	-9.77587
▁자리에서	-9.7768
▁권한	-9.77682
▁대체	-9.77747
▁정말	-9.77756
▁항의	-9.77823
▁기획	-9.77858
▁타율	-9.77968
▁언급	-9.77999
▁소장	-9.78016
연승	-9.78024
▁공화당	-9.78097
▁구조조정	-9.78116
▁이유는	-9.78163
개의	-9.78164
▁파견	-9.78182
만큼	-9.78222
▁동의	-9.78263
▁이탈리아	-9.78302
▁민	-9.78337
▁주인공	-9.78437
본부	-9.78488
▁감정	-9.78537
▁보여	-9.78581
▁제시	-9.78643
▁평소	-9.78685
▁본다	-9.78699
▁혁신	-9.78768
▁KT	-9.78781
▁단순	-9.78802
70	-9.78806
▁작업	-9.78913
▁경고	-9.78926
▁부모	-9.78955
▁때마다	-9.79042
장이	-9.79062
▁높이	-9.79197
기술	-9.79249
악	-9.7925
▁버스	-9.79261
▁체포	-9.79507
▁해소	-9.79529
▁현금	-9.79549
▁작전	-9.79549
등급	-9.79559
▁주도	-9.79743
▁논문	-9.79754
▁골프	-9.79789
▁영업	-9.79804
▁심각한	-9.79816
▁연습	-9.79845
▁친	-9.79879
▁KIA	-9.79883
▁떨어진	-9.79896
▁업계	-9.79898
▁화	-9.79905
▁부부	-9.79916
▁경찰이	-9.80054
L	-9.80067
▁통화에서	-9.80144
▁과제	-9.80229
▁고문	-9.80413
▁구입	-9.8044
▁30%	-9.80463
▁늘어난	-9.80538
▁대전	-9.80566
▁참가	-9.8058
척	-9.80603
▁복귀	-9.8061
최	-9.80641
▁북핵	-9.80675
▁진입	-9.80703
▁준다	-9.80749
▁순	-9.80764
▁들여	-9.80795
▁노동	-9.80818
▁요	-9.80841
은행	-9.80857
▁인정	-9.80882
▁잘못	-9.81006
▁국장	-9.81016
▁요구하는	-9.81026
▁금메달	-9.81053
▁만들었다	-9.8108
▁접	-9.8111
▁늘	-9.81187
▁부품	-9.81202
▁막기	-9.81206
으로서	-9.81232
▁스페인	-9.81252
▁국회의원	-9.81255
시키는	-9.81276
하려면	-9.81294
▁지하	-9.81296
▁통일	-9.81304
년째	-9.81365
빈	-9.81377
▁인물	-9.81403
▁채택	-9.81404
제도	-9.81443
▁앞에	-9.81454
▁일단	-9.81526
▁문건	-9.81676
▁북한에	-9.81732
▁일고	-9.81739
▁속에서	-9.81741
▁않도록	-9.81746
▁맡아	-9.81783
▁눈길	-9.81784
지도	-9.81808
25	-9.81846
▁국토부	-9.81887
▁의해	-9.81989
▁성명	-9.82107
▁최다	-9.82128
시킨	-9.82205
▁신경	-9.8221
▁영상	-9.8225
▁불만	-9.82325
균	-9.8233
▁베	-9.82394
▁작업을	-9.82395
▁맞	-9.82488
▁진단	-9.82619
▁투어	-9.82703
월까지	-9.82743
▁의회	-9.82767
▁유리	-9.82782
▁수준으로	-9.82799
로서	-9.82836
▁자연	-9.82838
▁사업에	-9.82864
16	-9.82904
▁채널	-9.82918
단계	-9.82928
▁현장에서	-9.82945
▁지도	-9.83053
▁현상	-9.83113
▁대사	-9.83139
▁여론	-9.83147
▁은퇴	-9.83187
문제	-9.83193
▁새정치민주연합	-9.83363
안보	-9.8345
▁단독	-9.83525
▁위원	-9.83547
▁비중	-9.83567
▁부과	-9.83582
▁속에	-9.83646
▁누	-9.83714
▁그린	-9.83762
▁근거	-9.83763
색	-9.83928
▁관	-9.84023
복지	-9.84027
▁콘텐츠	-9.8414
▁수원	-9.84188
테	-9.84197
스트	-9.84215
▁수정	-9.84271
▁재벌	-9.84284
홍	-9.84288
▁전남	-9.84321
▁있지	-9.84396
▁별도	-9.84466
▁포	-9.84481
▁뉴스	-9.84529
안전	-9.8458
▁승인	-9.84615
▁가능하다	-9.84686
대통령	-9.84779
▁물론이고	-9.84784
▁그래서	-9.84804
▁소비자	-9.84818
▁새벽	-9.84854
▁지낸	-9.84874
▁무료	-9.84887
연구소	-9.84906
▁대표의	-9.84949
▁갖	-9.85026
▁개성공단	-9.85028
손	-9.85063
▁점수	-9.85092
▁현행	-9.85098
▁법인	-9.85162
더라도	-9.8522
자기	-9.85249
▁옛	-9.85255
▁점이	-9.85303
독	-9.85325
▁연주	-9.85474
▁듣고	-9.85535
례	-9.85641
▁의견이	-9.85644
▁늘어나	-9.8565
▁그쳤다	-9.8566
▁추세	-9.85663
▁당선인	-9.85695
▁철회	-9.85706
▁답했다	-9.85738
▁엘지	-9.85789
▁경북	-9.85806
▁것처럼	-9.85864
대학	-9.85874
▁나눠	-9.86004
▁심리	-9.86016
쯤	-9.86061
▁조항	-9.8612
▁저지	-9.86156
운동	-9.86161
바로	-9.86217
▁국내에서	-9.86232
▁지역에서	-9.86238
▁분양	-9.86256
▁스	-9.86333
▁의료	-9.86353
▁모여	-9.86383
▁벌이고	-9.86505
▁탄핵	-9.86548
▁80	-9.86554
▁여권	-9.86606
▁지금은	-9.86643
▁만한	-9.86687
▁인생	-9.86713
▁2017	-9.86757
▁아프리카	-9.86763
▁풀	-9.86767
▁왕	-9.86793
B	-9.86844
50	-9.8686
송	-9.87086
▁동영상	-9.87094
▁들어가	-9.87154
▁의도	-9.87194
▁소개	-9.87202
▁당초	-9.87225
▁가동	-9.87232
▁권리	-9.87245
한다고	-9.87287
▁필리핀	-9.87331
▁순간	-9.87334
p	-9.87337
▁중국과	-9.87337
▁지적도	-9.87387
없이	-9.87439
▁존재	-9.87444
▁한국에	-9.87457
▁발언을	-9.87584
▁있는지	-9.87717
▁길이	-9.87739
▁김정은	-9.878
▁장면	-9.87818
▁징역	-9.87847
▁◇	-9.87877
▁전부터	-9.87896
개발	-9.88001
▁이른다	-9.8801
▁상당수	-9.88077
▁한번	-9.88087
▁필요성	-9.88129
▁코	-9.88157
▁친박	-9.88215
전쟁	-9.88241
▁야	-9.88298
임을	-9.88361
E	-9.88401
극	-9.88514
▁이익	-9.88538
▁진보	-9.88544
▁차단	-9.88581
▁탓에	-9.88603
턴	-9.88661
▁의견	-9.88714
▁나설	-9.88741
▁폭력	-9.88765
▁눈물	-9.88798
▁늘고	-9.88821
▁유통	-9.88943
▁베이징	-9.88988
▁주고	-9.89011
부장	-9.89028
▁합병	-9.8903
▁목소리를	-9.89045
▁대안	-9.89075
g	-9.89144
▁미리	-9.89166
▁빠르	-9.89215
▁•	-9.89301
▁마케팅	-9.8931
▁한국은	-9.8932
▁가수	-9.89482
▁지역의	-9.89496
▁음식	-9.8951
▁팬들	-9.89532
시킬	-9.89547
▁선박	-9.89558
▁힘든	-9.89592
▁전기	-9.89638
▁오늘	-9.89669
▁산하	-9.89681
▁비판이	-9.89695
▁특수	-9.89726
▁나가	-9.89758
▁예방	-9.89856
▁단지	-9.89857
담	-9.89918
▁영	-9.90096
▁갑	-9.90145
▁사안	-9.90162
19	-9.9019
▁대책을	-9.90265
▁마친	-9.90306
▁데뷔	-9.90362
▁백악관	-9.90376
립	-9.9043
▁범행	-9.9046
▁배제	-9.90468
▁크기	-9.90527
▁금융위기	-9.9056
▁자체가	-9.90585
▁기념	-9.90662
▁비상	-9.90726
▁홍콩	-9.90736
▁통보	-9.90748
▁교통	-9.90759
▁통제	-9.9076
▁연구원	-9.90815
▁150	-9.90817
당시	-9.90821
▁보상	-9.90825
▁초기	-9.90956
▁이사	-9.90983
▁참	-9.9104
때	-9.91047
▁커	-9.91047
▁빈	-9.91058
언더파	-9.91094
▁숨진	-9.91129
▁위치	-9.91153
▁감염	-9.91173
(4	-9.91332
▁개인정보	-9.91348
▁구상	-9.91379
▁다르다	-9.91399
▁설계	-9.91416
▁노선	-9.91565
▁32	-9.91735
▁구매	-9.91859
받아	-9.91861
60	-9.91862
▁싶은	-9.91897
▁운영하는	-9.91904
▁담긴	-9.91923
국회	-9.91947
▁임원	-9.91952
▁2003	-9.91991
▁연출	-9.92002
▁법적	-9.92031
▁경계	-9.92063
▁업체들	-9.92083
명에	-9.92093
▁원으로	-9.92168
▁말까지	-9.92189
▁출석	-9.92205
▁34	-9.92218
▁투	-9.92242
▁서류	-9.92308
▁판사	-9.92339
격	-9.92374
▁했고	-9.92452
진다	-9.92557
▁공개했다	-9.92606
기관	-9.92608
▁극	-9.92649
▁답	-9.92707
택	-9.92733
▁유력	-9.92755
라운드	-9.92786
▁3000	-9.92919
▁앱	-9.92945
▁터	-9.92951
▁하다	-9.92955
▁발견	-9.92955
▁외에	-9.92997
▁카	-9.93022
▁2002	-9.93121
▁아동	-9.93144
▁문제로	-9.93182
▁레	-9.93184
▁아래	-9.93259
합니다	-9.93262
▁시민들	-9.93293
개혁	-9.9335
▁종목	-9.93412
부산	-9.93424
최근	-9.93452
▁정신	-9.93471
▁기업이	-9.93514
▁문학	-9.93521
▁겪	-9.93557
▁대폭	-9.936
▁전망된다	-9.936
e	-9.93617
▁축제	-9.93677
▁100%	-9.93793
▁감세	-9.93794
박근혜	-9.93809
▁주석	-9.93813
▁돌아	-9.93815
▁가능성	-9.93835
▁간부	-9.93864
▁안타	-9.93915
▁여기에	-9.93916
▁하겠다	-9.93946
▁인해	-9.9395
▁참석한	-9.9402
▁남편	-9.94043
▁직업	-9.9406
▁다소	-9.94065
▁제외한	-9.94099
▁보유	-9.94101
▁자국	-9.94258
▁자세	-9.9427
▁5000	-9.9427
▁캐릭터	-9.94411
▁잇따라	-9.94412
▁고향	-9.94427
▁향해	-9.94433
▁구간	-9.94479
14	-9.94516
전자	-9.94533
▁평가했다	-9.94551
▁횡령	-9.94575
▁쓰는	-9.94585
(6	-9.94682
▁헌재	-9.94687
▁부정	-9.94711
▁우수	-9.94765
▁강원	-9.94855
•	-9.94873
▁동부	-9.94955
▁가능성도	-9.95035
활동	-9.95076
▁시작된	-9.95119
▁기초	-9.95155
▁따로	-9.95176
17	-9.95188
▁받는다	-9.95191
▁소환	-9.95272
▁건립	-9.95287
▁술	-9.953
▁플레이오프	-9.95346
▁염	-9.95404
▁존	-9.95433
▁대상이	-9.95438
▁조작	-9.95495
▁매일	-9.95676
▁상반기	-9.95767
▁좋아	-9.95799
▁득점	-9.95877
▁중구	-9.95955
15	-9.96003
많은	-9.96024
▁지지율	-9.96054
▁분명히	-9.96143
▁시장이	-9.96147
▁한국과	-9.96164
▁줄었다	-9.96208
▁상황에	-9.96221
▁그렇게	-9.96248
▁검찰에	-9.96278
황	-9.96312
▁가슴	-9.96329
▁틀	-9.96333
▁40%	-9.96373
향	-9.96462
삼	-9.96587
▁걱정	-9.966
▁지역에	-9.96604
▁청문회	-9.96616
마저	-9.96634
▁종료	-9.96661
▁악화	-9.96717
▁매입	-9.96733
충	-9.9676
커	-9.96815
I	-9.96949
츠	-9.96963
▁창출	-9.9697
안을	-9.96993
▁이야기를	-9.97031
▁동료	-9.97033
▁벌였다	-9.97066
▁목표로	-9.97098
▁새정치연합	-9.9716
▁행정부	-9.97211
▁실시	-9.97246
자를	-9.97249
▁고려대	-9.97321
▁점검	-9.9733
▁복원	-9.97386
▁출연	-9.97401
▁제목	-9.97486
▁위해서는	-9.97512
▁바꿔	-9.97518
▁징계	-9.97546
▁교수가	-9.97577
▁보낸	-9.97695
▁낼	-9.97715
이기	-9.97718
블	-9.97723
스타	-9.97787
F	-9.9779
▁자살	-9.97841
투자	-9.97856
▁실력	-9.97859
▁연대	-9.97864
▁모아	-9.97913
▁사찰	-9.9798
하여	-9.9804
▁최저임금	-9.98048
▁격	-9.98048
수사	-9.98076
▁석	-9.98156
▁워싱턴	-9.98272
성이	-9.98474
▁벗어나	-9.98503
▁기록한	-9.98544
협의회	-9.98679
▁입주	-9.98688
▁런던	-9.98722
▁채권	-9.98754
▁기획재정부	-9.9878
재단	-9.98782
▁정리	-9.98838
▁성격	-9.98946
▁결	-9.9899
▁넥센	-9.99031
▁주말	-9.99053
▁감축	-9.99096
자로	-9.99128
▁제안했다	-9.99133
▁그리스	-9.99149
▁G	-9.99157
지구	-9.99207
풍	-9.99247
▁벌	-9.99257
▁질	-9.99284
상을	-9.9937
▁펀드	-9.99383
▁패	-9.9942
계획	-9.9953
▁봤다	-9.99555
▁하자	-9.99587
▁찾기	-9.9961
자회담	-9.99611
▁개봉	-9.99628
▁생	-9.99629
▁소식	-9.99658
▁쓰	-9.99736
▁자민당	-9.99747
▁만났다	-9.9976
▁신설	-9.99764
▁마치	-9.99786
22	-9.99838
▁멕시코	-9.99846
되	-9.99904
▁수십	-9.99928
▁최대한	-9.99973
지난	-9.99982
▁류	-10.0004
침	-10.0006
돼야	-10.0007
24	-10.0008
한다면	-10.0009
▁특검	-10.0011
▁고통	-10.0014
▁사건이	-10.0018
▁본사	-10.0026
▁참여한	-10.0041
▁불편	-10.0048
▁다음달	-10.0048
▁농구	-10.005
▁썼다	-10.005
▁바란다	-10.005
▁2016	-10.0052
▁알려진	-10.0053
▁늘어	-10.0061
▁라	-10.0062
▁집행	-10.0064
▁백화점	-10.0067
▁장기	-10.0075
▁제정	-10.0077
화학	-10.0083
지를	-10.0089
▁5%	-10.0091
▁포인트	-10.0115
12	-10.0118
0%	-10.0121
▁다리	-10.0124
▁국무총리	-10.0138
6000	-10.014
▁조기	-10.0142
▁있을지	-10.0147
▁편지	-10.0149
현재	-10.015
▁발의	-10.0151
▁공정위	-10.0154
▁식	-10.0155
▁환율	-10.016
▁추석	-10.0164
▁로비	-10.0169
▁무대에	-10.0169
▁잡고	-10.0182
▁진영	-10.0192
▁모바일	-10.0193
▁당일	-10.0201
▁당국자	-10.0204
▁차원	-10.0204
▁정비	-10.0213
▁불구하고	-10.0231
▁스님	-10.0234
에만	-10.0235
▁최악	-10.0246
▁수단	-10.0247
▁대표적인	-10.025
▁장소	-10.025
▁이러	-10.025
감독	-10.0253
▁공공기관	-10.0255
▁실천	-10.0261
▁제시했다	-10.0262
▁시점	-10.0272
▁병	-10.0273
▁C	-10.0273
▁분리	-10.0277
익	-10.0277
▁절대	-10.028
헌	-10.0281
▁집권	-10.0281
▁환경부	-10.0282
▁휴대전화	-10.0287
▁상대적	-10.0289
받았다	-10.0294
냈다	-10.0298
▁사이에서	-10.0298
▁살아	-10.031
▁전반	-10.0315
▁과학	-10.0322
▁꼽았	-10.0323
▁견줘	-10.0323
▁알려져	-10.0323
에겐	-10.0325
▁이사회	-10.0327
▁운용	-10.0336
▁녹음	-10.0336
→	-10.0339
애	-10.0341
▁상승세	-10.0346
가지	-10.0354
전략	-10.0356
시민	-10.0358
▁있어야	-10.036
▁이틀	-10.036
▁집단	-10.0377
▁탈출	-10.038
▁확실	-10.0392
▁계기	-10.0393
▁로켓	-10.0415
▁즉각	-10.0416
타수	-10.0424
기록	-10.0428
▁70%	-10.0431
축	-10.0432
▁빠른	-10.0433
▁쓸	-10.0436
▁행복	-10.044
▁시장에서	-10.0443
글	-10.0446
후보	-10.0454
▁매장	-10.0455
예술	-10.0458
▁방문해	-10.0462
▁38	-10.0466
▁명단	-10.0469
▁토론	-10.0469
▁방지	-10.0473
o	-10.0474
▁번역	-10.0476
▁부담이	-10.0479
▁질문	-10.048
욱	-10.0483
▁밥	-10.0486
▁청	-10.0502
▁충남	-10.0506
▁보안	-10.0506
값	-10.0507
▁벌인	-10.051
▁이상이	-10.0512
▁패배	-10.0515
▁어린	-10.0517
▁클린턴	-10.052
▁관측이	-10.0521
▁촉구했다	-10.0521
▁차지했다	-10.0522
▁입학	-10.0525
▁잠	-10.053
주는	-10.0533
▁엄마	-10.0535
▁연계	-10.0547
▁대화를	-10.0547
▁가지고	-10.055
▁금액	-10.0557
▁체계	-10.0562
▁심의	-10.0565
쳐	-10.0579
갔다	-10.058
▁포기	-10.0581
▁한미	-10.0594
벌	-10.0598
▁돌파	-10.06
▁나는	-10.0601
알	-10.0602
개로	-10.0602
▁판정	-10.0609
▁모았다	-10.0609
▁정부에	-10.0611
▁내렸다	-10.0611
대표	-10.0614
생활	-10.0621
▁총재	-10.0627
▁진실	-10.0636
하려고	-10.0637
섭	-10.0644
▁형태	-10.0647
케	-10.0649
올해	-10.0654
▁불과	-10.0655
▁교류	-10.0655
▁현안	-10.0656
▁낮	-10.0656
▁이뤄진	-10.0662
▁먹	-10.0667
▁점도	-10.0676
내가	-10.0677
▁홈	-10.0684
▁내지	-10.0693
이상	-10.0703
▁하반기	-10.071
민주당	-10.0711
▁과장	-10.0712
▁정규리그	-10.0712
▁왼쪽	-10.0717
▁정치인	-10.0721
▁귀	-10.0724
▁지속적	-10.0744
▁선언했다	-10.0744
▁PD	-10.0745
▁대가	-10.0753
▁배경	-10.076
▁졸업	-10.0763
▁45	-10.0774
▁당선	-10.0777
뿐만	-10.0779
▁본인	-10.0786
▁무릎	-10.0795
▁영업이익	-10.0795
▁보냈다	-10.0797
▁연결	-10.0804
힐	-10.0808
▁후보와	-10.081
▁값	-10.0811
▁인도네시아	-10.0812
▁개헌	-10.0814
▁관심	-10.0816
▁만들고	-10.0818
▁강행	-10.0818
▁침체	-10.0818
르면	-10.0818
▁통일부	-10.0819
▁확장	-10.0819
▁발행	-10.082
▁반영	-10.0826
메	-10.0832
▁자동	-10.0842
▁KBS	-10.0844
하자는	-10.0846
▁이뤄지	-10.0848
▁일제	-10.0849
▁응	-10.0854
▁유일	-10.0857
▁변수	-10.0866
▁정치권	-10.0867
▁수치	-10.0882
▁없었	-10.0889
족	-10.0889
원으로	-10.0889
▁예측	-10.0889
▁걸어	-10.089
▁이같	-10.0892
▁들어갔다	-10.0894
23	-10.0896
▁열렸다	-10.0902
▁판	-10.0905
▁시작으로	-10.0905
통신	-10.091
▁자전거	-10.0912
▁평창	-10.0913
▁수용	-10.0913
▁철거	-10.0915
연패	-10.0916
▁전망했다	-10.0927
되어	-10.0928
▁공공	-10.0928
▁센터	-10.0931
낼	-10.0932
▁국민들	-10.0932
▁경찰에	-10.0933
▁주재	-10.0934
▁감시	-10.0938
▁주문	-10.0941
▁떨어지	-10.0946
▁대표적	-10.0946
▁종	-10.0946
▁있	-10.0951
춘	-10.0955
▁추정	-10.0958
▁동기	-10.0962
▁강원도	-10.0963
혜	-10.0966
▁선물	-10.0972
나는	-10.098
▁한국에서	-10.0984
사는	-10.0986
냥	-10.0988
▁겪고	-10.0994
▁주제	-10.0999
(7	-10.0999
▁과도	-10.1004
▁무소속	-10.1011
▁분석한	-10.1016
득점	-10.1016
▁각국	-10.1021
▁지역구	-10.1022
▁움직임	-10.1023
▁할인	-10.1023
▁행진	-10.1027
▁시진핑	-10.1027
▁대회에서	-10.1028
▁재단	-10.1037
▁이내	-10.1049
▁등과	-10.1056
▁한국이	-10.1061
▁35	-10.1064
▁가입자	-10.107
▁후원	-10.1079
다면	-10.1079
▁메이저리그	-10.108
▁연설	-10.1081
▁꺾고	-10.1089
▁압수수색	-10.1089
▁상처	-10.109
▁밀	-10.1091
▁버	-10.1095
▁위해서	-10.1096
▁지상파	-10.11
▁파키스탄	-10.1102
앞으로	-10.1108
평가	-10.1108
▁연세대	-10.111
4000	-10.1111
▁제외	-10.1117
▁비용을	-10.1121
▁거치	-10.1124
N	-10.1125
▁기지	-10.1128
의원	-10.1129
▁최선	-10.1131
▁허가	-10.1133
탈	-10.1133
▁공세	-10.1136
▁활용해	-10.1141
▁중간	-10.1145
▁지도자	-10.1145
▁형제	-10.1145
▁공개한	-10.1153
▁김정일	-10.1153
▁사정	-10.1155
구단	-10.1159
▁회의에서	-10.116
련	-10.116
▁강남구	-10.1161
▁맡	-10.1171
▁얼굴	-10.1171
하는데	-10.1173
▁적발	-10.1181
▁주력	-10.1183
▁이행	-10.1184
▁깊은	-10.1189
▁풀이된다	-10.1189
되기	-10.119
▁입증	-10.1192
▁모른다	-10.1193
▁노동당	-10.1194
▁강의	-10.1195
▁종합	-10.12
▁보완	-10.1203
▁등급	-10.1203
▁훼손	-10.1204
▁출입	-10.1207
▁예고	-10.1207
▁표정	-10.1208
청와대	-10.1211
▁인원	-10.1211
연구원	-10.1211
▁폐쇄	-10.1214
▁김무성	-10.1214
▁강조	-10.1217
▁빌	-10.1221
▁포항	-10.1232
3000	-10.1236
▁동생	-10.1236
▁원래	-10.124
▁줄이	-10.1243
▁주제로	-10.1244
2%	-10.1244
▁영입	-10.1247
기구	-10.1247
전문	-10.1247
▁독자	-10.1251
▁청와대는	-10.1253
▁해제	-10.1258
▁중동	-10.126
▁극복	-10.126
▁참여하는	-10.1263
▁창업	-10.1264
▁최씨	-10.1268
▁저자	-10.1275
기간	-10.1277
▁메	-10.1285
!	-10.1286
▁美	-10.1288
▁◆	-10.1294
▁막을	-10.1296
▁결혼	-10.1297
▁기아	-10.1298
▁2001	-10.13
▁모비스	-10.1304
▁무슨	-10.1305
▁경비	-10.1308
▁방어	-10.1309
▁여의도	-10.1311
▁결의안	-10.1312
▁조율	-10.1313
▁FA	-10.1316
▁36	-10.1316
▁국민연금	-10.1323
▁실수	-10.1326
▁상금	-10.1336
타점	-10.1338
실점	-10.1342
▁구성된	-10.1349
선거	-10.1349
▁기조	-10.1352
성과	-10.1352
▁안에서	-10.1356
사가	-10.1358
▁바람	-10.1366
▁옮겨	-10.1381
▁트위터	-10.1384
▁문제점	-10.1389
▁제조	-10.1392
▁계산	-10.1394
▁비자금	-10.1395
▁통산	-10.1397
▁결정했다	-10.1399
폭	-10.1404
▁빠진	-10.1411
7000	-10.1416
8000	-10.1417
▁우주	-10.1417
▁현상이	-10.1424
▁그녀	-10.1429
기가	-10.1431
▁화재	-10.1432
▁현역	-10.1433
혀	-10.1433
▁위안부	-10.1442
조직	-10.1447
▁말한	-10.1448
▁무역	-10.1449
▁법정	-10.145
▁관광	-10.1453
SK	-10.146
▁이자	-10.1461
▁정식	-10.1465
26	-10.1468
▁얼마	-10.1468
술	-10.147
라면	-10.1471
▁중에	-10.148
▁쓰고	-10.1493
▁대통령에게	-10.1494
▁케이티	-10.1495
▁시민단체	-10.1497
▁나타나	-10.1502
▁찾았다	-10.1508
▁금품	-10.1509
▁33	-10.1515
업계	-10.1519
▁민생	-10.1523
▁역전	-10.1524
▁지자체	-10.1526
째	-10.1528
▁가격이	-10.153
움	-10.1535
▁무게	-10.1537
▁가능성은	-10.154
▁직전	-10.1541
▁땐	-10.1545
▁호텔	-10.1546
▁몸을	-10.1549
▁요금	-10.1553
▁처	-10.1558
▁일대	-10.1561
▁생명	-10.1568
▁다수	-10.1581
▁있으면	-10.1585
▁혼자	-10.1594
싱	-10.1594
▁갖춘	-10.16
▁인연	-10.1602
▁주기	-10.1602
조선	-10.1603
▁못할	-10.1604
▁소유	-10.1605
?”	-10.1607
▁성폭행	-10.1614
센	-10.1619
▁류현진	-10.162
▁1500	-10.1639
▁출신인	-10.1642
됐지만	-10.1647
▁있다면	-10.1649
▁위기에	-10.1659
▁중국인	-10.1661
▁주장을	-10.1669
▁측면	-10.1671
y	-10.1671
률	-10.1674
▁종로구	-10.1686
▁수행	-10.1694
▁몰려	-10.1695
▁모집	-10.1695
+	-10.1701
룡	-10.1702
“	-10.1703
▁해킹	-10.1706
▁대립	-10.1709
시각	-10.1711
.”(	-10.1716
▁감사원	-10.1729
▁원유	-10.1734
▁정상화	-10.1738
▁분야에서	-10.1738
▁1990	-10.1739
9%	-10.1741
▁박원순	-10.1742
렸다	-10.1743
▁클래식	-10.1746
▁받기	-10.1748
▁물가	-10.1748
▁비율이	-10.1748
▁당선자	-10.1749
▁강도	-10.1752
O	-10.1754
▁플레이	-10.1755
자금	-10.1756
▁미만	-10.1757
▁조사한	-10.1764
▁무리	-10.1765
▁답변	-10.1765
▁내년부터	-10.1767
▁의결	-10.1767
▁회동	-10.1776
북한이	-10.1779
▁입법	-10.178
▁상담	-10.1781
▁서울중앙지검	-10.1785
▁동원	-10.179
▁공정	-10.1793
누	-10.1794
▁식으로	-10.1795
링	-10.1795
법을	-10.1803
▁있습니다	-10.1812
슈	-10.1814
자들이	-10.1819
▁반복	-10.1825
▁필	-10.1826
▁실장	-10.1829
l	-10.183
▁모습이	-10.1835
▁개념	-10.1836
▁양보	-10.1838
▁세계적	-10.1838
선수	-10.184
▁짧	-10.184
▁자신감	-10.1841
▁예산안	-10.1849
▁2018	-10.1849
▁결과에	-10.1852
▁불참	-10.1852
▁김대중	-10.1853
씨와	-10.1854
▁측근	-10.1855
공장	-10.1857
(10	-10.1857
▁경력	-10.1861
▁유일한	-10.1865
▁인사들	-10.1865
▁시리즈	-10.1867
▁중요	-10.1867
▁가족들	-10.1872
▁의문	-10.1879
▁전당대회	-10.189
▁싶어	-10.1906
▁팀이	-10.1907
▁대학생	-10.1911
북한의	-10.1911
▁누구	-10.1912
▁늘리	-10.1912
▁공모	-10.1914
▁장비	-10.1916
국제	-10.1921
▁내는	-10.1924
으	-10.1926
▁경제적	-10.1927
▁입지	-10.1929
▁미디어	-10.1931
▁국내외	-10.1943
▁증언	-10.1946
인당	-10.1946
▁화제	-10.1946
▁고발	-10.1949
낙	-10.1951
▁국회에	-10.1952
환경	-10.1954
▁코치	-10.1956
과학	-10.196
웠다	-10.1967
건설	-10.1968
▁체험	-10.197
보수	-10.1972
내년	-10.1972
▁부여	-10.1976
28	-10.1995
▁고려해	-10.1997
옥	-10.1997
▁전직	-10.2005
▁사망자	-10.2008
▁전공	-10.2014
▁제주도	-10.2017
▁찾아가	-10.2022
▁사이트	-10.2024
▁어려울	-10.2027
7%	-10.203
▁사이의	-10.2032
▁부분이	-10.2036
▁봄	-10.2041
13	-10.2043
▁1999	-10.2048
▁지방선거	-10.2049
▁편성	-10.2052
▁시장에	-10.2053
▁계좌	-10.2058
▁요청했다	-10.2068
▁뒤에	-10.2069
▁CJ	-10.2081
▁여름	-10.2093
▁드	-10.2095
▁국립	-10.2095
효	-10.2096
▁파악	-10.2096
▁방한	-10.2099
▁바다	-10.21
▁학생들이	-10.2106
▁재원	-10.2113
▁행보	-10.2114
▁투쟁	-10.2119
▁좋겠다	-10.2137
▁연락	-10.2137
▁벌어진	-10.2139
▁영향력	-10.2139
▁화려	-10.2139
29	-10.2142
▁않았지만	-10.2143
함으로써	-10.2145
▁소비자들	-10.2146
▁1997	-10.2147
카드	-10.2147
▁꼽힌다	-10.215
▁삭감	-10.215
▁현황	-10.2156
▁제시한	-10.2159
▁예선	-10.2165
줬다	-10.2173
▁반도체	-10.2175
▁줄어들	-10.2187
▁풀어	-10.2189
▁점포	-10.2193
검사	-10.2193
▁폭탄	-10.2194
대선	-10.22
▁유세	-10.2201
W	-10.2204
▁탓	-10.2205
▁교회	-10.2207
었던	-10.2208
▁연금	-10.221
▁수사에	-10.221
로운	-10.2212
▁있어서	-10.2221
으면서	-10.2222
만으로	-10.2224
i	-10.2224
▁난민	-10.2233
▁진행되	-10.2243
▁출간	-10.2244
▁정지	-10.2247
▁받게	-10.2248
▁컸다	-10.2248
▁내다봤다	-10.2248
▁후보로	-10.2249
▁이씨는	-10.2253
▁지원하는	-10.2253
▁민심	-10.2256
▁민간인	-10.2257
▁2~3	-10.2258
서비스	-10.2258
님	-10.2262
▁세운	-10.2263
▁0	-10.2264
▁그만큼	-10.2266
▁기자회견에서	-10.227
▁대한항공	-10.227
2)	-10.2272
▁에스케이	-10.2274
▁지속	-10.2276
▁이슈	-10.2279
▁화장품	-10.2282
▁판매량	-10.2284
학년도	-10.2285
겠다고	-10.2287
▁잡아	-10.2288
▁메르스	-10.2292
▁교	-10.2302
▁겨냥	-10.2303
습	-10.2304
▁의원을	-10.2306
▁검토하고	-10.2307
이면	-10.2311
▁침몰	-10.2312
지난해	-10.2313
▁기다리	-10.2319
▁내린	-10.2322
▁초등학교	-10.2322
체제	-10.2324
▁애플	-10.2325
▁주장이	-10.2332
▁벽	-10.2336
슨	-10.2338
▁누가	-10.2339
▁부족한	-10.2342
▁구글	-10.2344
▁토	-10.2344
▁대상자	-10.2346
▁기억	-10.2347
연구	-10.2353
▁밖에	-10.2357
▁보건복지부	-10.236
▁덜	-10.2364
▁반박했다	-10.2368
▁높아	-10.237
▁힘들	-10.2372
▁지명	-10.2386
혁	-10.2389
▁육성	-10.239
▁시신	-10.239
▁진료	-10.239
▁수습	-10.2391
려고	-10.2393
▁회원	-10.2394
▁격차	-10.2395
전에서	-10.2396
▁바둑	-10.2396
▁성장률	-10.2401
▁2020	-10.2401
▁조사됐다	-10.2404
▁사업이	-10.2411
▁신호	-10.2412
▁안정적	-10.2413
▁심판	-10.2416
▁44	-10.2425
▁의원과	-10.2425
▁파업	-10.2426
▁빛	-10.2431
▁지키	-10.2432
▁넘기	-10.2434
▁요구한	-10.2437
▁탄생	-10.2439
▁정원	-10.2454
▁차로	-10.246
▁내에서	-10.2466
▁전투	-10.247
▁댓글	-10.2474
▁일주일	-10.2475
▁나란히	-10.2476
제를	-10.2477
▁사항	-10.2479
▁동물	-10.2482
▁써	-10.2488
▁바라	-10.2488
▁총회	-10.2489
▁김영	-10.2493
▁기간에	-10.2494
▁친환경	-10.2495
▁급	-10.2497
▁박씨	-10.2498
▁명품	-10.25
▁종교	-10.2501
▁600	-10.2502
위는	-10.2503
▁퇴진	-10.2504
▁해산	-10.2504
▁제의	-10.2505
▁주지	-10.2508
▁대법관	-10.2515
▁형	-10.2515
▁작성	-10.2517
▁물질	-10.2517
▁세종시	-10.2518
▁참석했다	-10.2522
▁성인	-10.2524
▁서명	-10.2528
▁시위대	-10.2535
▁차별	-10.2541
여개	-10.2544
비용	-10.2551
▁초점	-10.256
▁향	-10.256
▁승	-10.2561
해진	-10.2561
▁견제	-10.2567
드는	-10.2568
▁만들기	-10.2568
▁“‘	-10.257
경기에서	-10.258
동안	-10.258
▁양성	-10.2588
▁떨어져	-10.2589
▁있느냐	-10.259
▁전년	-10.259
▁민감	-10.2592
▁1980	-10.2592
▁높게	-10.2593
▁특성	-10.2593
(19	-10.2596
▁창당	-10.2597
소득	-10.2599
지금	-10.2601
▁시작됐다	-10.2602
▁이어졌다	-10.2604
▁한국은행	-10.2605
▁음반	-10.2606
▁보유한	-10.2606
베	-10.2607
▁경험이	-10.2612
차관	-10.2612
▁보존	-10.2613
노조	-10.2615
▁가계	-10.2621
▁돌아가	-10.2623
▁부채	-10.2624
'(	-10.2625
▁담화	-10.2629
▁혼	-10.2637
▁나선다	-10.2639
밀	-10.2642
아시아	-10.2645
경찰	-10.2653
▁합격	-10.2656
삼성	-10.2656
▁원하는	-10.2658
▁"(	-10.266
▁전까지	-10.2662
▁그때	-10.2667
90	-10.2671
▁성공했다	-10.2673
▁대통령을	-10.2678
투어	-10.268
▁시범	-10.2684
▁생존	-10.2686
▁이끌	-10.2688
▁입고	-10.2692
무려	-10.2697
▁말고	-10.2698
▁중국에	-10.2698
웅	-10.27
▁마치고	-10.2703
께	-10.2704
▁잇달아	-10.2705
승을	-10.2708
▁복	-10.2712
▁지나치	-10.2713
▁들어서	-10.2715
▁내려	-10.2717
대를	-10.272
▁사건에	-10.2723
▁현직	-10.2724
▁파리	-10.2725
▁모양	-10.2726
▁석유	-10.2729
▁―	-10.273
▁살고	-10.2733
▁하나로	-10.2735
▁당연	-10.2736
▁자원	-10.2742
▁안보리	-10.2749
자와	-10.2753
▁주장하는	-10.2759
▁동네	-10.2763
80	-10.2766
▁이전에	-10.2772
”...	-10.2778
플	-10.2781
31	-10.2781
주택	-10.2781
LG	-10.2785
퍼	-10.2797
대책	-10.2797
▁민주당이	-10.2801
▁탈	-10.2806
참	-10.2809
▁이어질	-10.2813
47	-10.2822
▁늘어날	-10.2824
▁있었지만	-10.2825
▁자리에	-10.2832
▁조각	-10.2832
▁검찰총장	-10.2837
시대	-10.2839
▁없지만	-10.2841
▁철	-10.2843
▁프로농구	-10.2846
▁논리	-10.2846
▁품목	-10.2848
▁수익률	-10.2854
▁믿	-10.2857
▁위로	-10.2858
▁도심	-10.2868
▁갈등이	-10.2873
았	-10.2875
▁쇄신	-10.2878
▁아주	-10.2884
U	-10.2889
▁본회의	-10.2891
▁65	-10.2892
▁동맹	-10.2896
페	-10.2899
거래	-10.2901
▁겨울	-10.2906
▁사건은	-10.2908
▁추모	-10.2908
▁형식	-10.2908
▁말해	-10.2913
▁적자	-10.2918
람	-10.2924
▁이용한	-10.2925
▁진화	-10.2935
▁파괴	-10.2936
상품	-10.2938
▁도널드	-10.2942
▁표결	-10.2942
▁버디	-10.2943
이런	-10.2946
▁밝혀졌다	-10.2946
▁보이지	-10.2948
▁바닥	-10.2948
▁언제	-10.2949
▁막판	-10.295
사건	-10.2951
▁유해	-10.2954
▁점유율	-10.2958
▁합니다	-10.2962
▁공원	-10.2964
▁이어진	-10.2965
▁오른쪽	-10.2969
▁매출액	-10.297
이라면	-10.2971
▁1998	-10.2973
▁사장이	-10.2975
▁가져	-10.2976
▁보통	-10.2979
▁미술	-10.2979
▁지출	-10.2979
▁홀	-10.2981
▁면접	-10.2983
▁요소	-10.2983
▁없기	-10.2985
▁제도를	-10.2986
씨를	-10.2991
▁달려	-10.2992
▁마음이	-10.2993
차전에서	-10.2993
▁직장	-10.2996
협	-10.2996
몰	-10.2998
▁유학	-10.3002
▁P	-10.3008
▁맞은	-10.3012
▁이루	-10.3015
골을	-10.3025
▁앞선	-10.305
녀	-10.305
▁못한다	-10.3054
▁순위	-10.3055
▁혼란	-10.3056
완	-10.3057
해주는	-10.3058
▁드러냈다	-10.3062
겨	-10.3065
▁그것	-10.3065
▁창단	-10.3067
학생	-10.3068
전을	-10.3068
▁명시	-10.307
▁파문	-10.3072
▁이어지는	-10.3078
▁대처	-10.3083
▁느낌	-10.3084
▁리더십	-10.3088
아이	-10.3092
▁국회의장	-10.3097
▁적어	-10.3099
▁수능	-10.31
▁형성	-10.3103
▁제기되	-10.3107
▁주변에	-10.3109
마리	-10.3109
▁빼	-10.3114
순위	-10.3116
▁있음을	-10.3123
▁떠	-10.3124
▁해군	-10.3124
땐	-10.3125
▁결제	-10.313
▁들어간	-10.3142
▁국가들	-10.3144
▁교장	-10.3146
▁절	-10.3154
보호	-10.3157
였지만	-10.3163
니까	-10.3164
▁수색	-10.3167
▁보지	-10.3168
▁클	-10.3175
위원	-10.3184
▁삭제	-10.3184
▁맞았다	-10.3194
▁얻었다	-10.3195
▁도중	-10.3199
항공	-10.3203
▁푸틴	-10.3204
것	-10.3206
▁상위	-10.3206
▁대형마트	-10.3213
▁M	-10.3215
▁미국이	-10.3217
▁60%	-10.3221
▁소년	-10.3223
▁유도	-10.3225
행위	-10.3227
▁보조금	-10.3229
▁차지하는	-10.323
▁디	-10.3236
▁잔	-10.3237
▁임시	-10.3238
먼	-10.3243
문재인	-10.3246
▁하늘	-10.3247
▁힘이	-10.3249
▁형태로	-10.3252
▁근로자	-10.3262
장으로	-10.3267
놓	-10.3281
▁탄	-10.3289
▁지점	-10.3293
▁김모	-10.3294
▁합류	-10.3295
▁달라고	-10.3297
▁업종	-10.3298
키로	-10.3302
느라	-10.331
▁관행	-10.331
▁삼아	-10.331
▁여성들	-10.331
▁부위원장	-10.3311
▁인양	-10.3311
려면	-10.3313
▁자유한국당	-10.3316
회말	-10.332
▁묻는	-10.332
▁타선	-10.3322
▁그들	-10.3323
사를	-10.3328
▁동일	-10.3331
▁했는데	-10.3331
▁남북관계	-10.3332
▁끝내	-10.3335
▁피부	-10.3338
▁가려	-10.3339
구역	-10.3339
▁끼	-10.3343
스러운	-10.3343
▁잉글랜드	-10.3343
찰	-10.3352
▁시내	-10.3353
▁수립	-10.3357
▁달성	-10.3358
(18	-10.3362
▁간사	-10.3372
▁실무	-10.3373
▁서민	-10.338
▁선전	-10.3381
▁돈이	-10.3383
▁아침	-10.3386
점으로	-10.3389
▁박정희	-10.3389
▁선진국	-10.339
▁공감	-10.3395
자인	-10.3399
▁청약	-10.3402
▁탈당	-10.3407
▁비중이	-10.3407
노동	-10.3409
장관	-10.3415
▁R	-10.3422
▁알아	-10.3424
▁42	-10.3424
하면서도	-10.3425
▁상무	-10.3425
▁치료를	-10.3426
1000	-10.3427
▁손해	-10.3427
▁일상	-10.3433
▁이웃	-10.3441
▁국토해양부	-10.3441
▁보험료	-10.3445
▁구체적으로	-10.3448
▁김연아	-10.3449
▁설정	-10.3449
▁보여준다	-10.345
▁쪽에	-10.345
▁스트레스	-10.345
▁예능	-10.3453
▁전형	-10.3456
▁덕분에	-10.3458
8%	-10.3462
▁상하이	-10.3463
▁이슬람	-10.3463
▁받아야	-10.3464
▁정규	-10.3468
w	-10.3473
▁무산	-10.3474
▁스위스	-10.3476
▁뚜렷	-10.3476
예산	-10.3488
▁실질적	-10.349
▁장악	-10.3491
▁사람들은	-10.3493
▁경험을	-10.3493
짝	-10.35
어야	-10.3504
평균	-10.3507
(8	-10.351
▁이곳	-10.3514
37	-10.3516
▁실현	-10.3518
▁요구하고	-10.3518
▁줄어든	-10.3525
▁잡지	-10.3529
▁손실	-10.353
여서	-10.3534
▁증인	-10.3535
▁4000	-10.3538
▁충북	-10.3539
▁대비해	-10.3543
▁표시	-10.3545
기준	-10.3554
100	-10.3559
=	-10.3559
▁뒤늦게	-10.3559
▁서울중앙지법	-10.3559
▁스윙	-10.3559
▁구속영장	-10.3559
▁성남	-10.356
▁오랜	-10.356
▁소식통	-10.3561
대한	-10.3562
▁당원	-10.3563
▁국경	-10.3566
▁벌금	-10.3567
▁반대하는	-10.3567
▁접수	-10.3567
구조	-10.3567
▁출발	-10.357
연합	-10.3572
▁권고	-10.3576
▁당분간	-10.3577
▁무죄	-10.3585
▁카페	-10.3587
▁곳에서	-10.3596
▁추진하는	-10.3597
▁방식을	-10.3599
▁펼치	-10.3599
▁확인했다	-10.36
언론	-10.36
▁균형	-10.3602
대에	-10.3602
▁D	-10.3604
▁노출	-10.3605
범죄	-10.3608
▁웃	-10.3611
▁급여	-10.3615
▁보관	-10.3622
대가	-10.3626
▁반군	-10.3628
▁장군	-10.3629
▁허위	-10.3629
▁의혹에	-10.3634
▁학교에	-10.3636
3%	-10.3636
국정원	-10.364
▁비행기	-10.364
▁나갈	-10.3641
▁헌법재판소	-10.3641
▁명확	-10.3641
▁되기	-10.3651
5%	-10.3654
▁좋지	-10.3662
▁상당한	-10.3671
▁드러나	-10.3674
▁이벤트	-10.3687
▁내놨다	-10.3687
▁국무부	-10.3687
▁시상식	-10.3688
▁부활	-10.3689
▁대선후보	-10.369
▁챔피언	-10.369
▁떠난	-10.3692
▁부대	-10.3692
▁합의했다	-10.3694
▁운전	-10.3699
▁고급	-10.37
▁잠시	-10.37
▁높이는	-10.3701
▁1~2	-10.3702
▁직	-10.3702
▁포함됐다	-10.3703
보고	-10.3705
▁특혜	-10.3707
국내	-10.3711
▁열심	-10.3714
▁호남	-10.3717
▁터키	-10.372
▁팬	-10.3721
▁생각이	-10.3722
▁육군	-10.3723
▁잘못된	-10.3724
▁것인지	-10.3726
▁진전	-10.3727
▁캐나다	-10.3729
▁디지털	-10.373
▁총수	-10.373
▁죽음	-10.3733
존	-10.3734
니다	-10.3738
▁시스템을	-10.3738
가족	-10.3744
27	-10.3745
▁질환	-10.3747
클	-10.3751
으니	-10.3753
▁사용하는	-10.3753
▁어렵	-10.376
▁복지부	-10.3763
공연	-10.3763
▁식사	-10.3765
꽃	-10.3767
▁기대한다	-10.3774
▁창	-10.3782
아직	-10.3784
▁했다고	-10.3787
내내	-10.379
88	-10.3796
▁싸움	-10.3802
▁경위	-10.3809
▁뛰어난	-10.3819
▁만남	-10.3823
▁거둔	-10.3823
▁범	-10.3824
▁연휴	-10.3824
▁조달	-10.3828
▁응원	-10.3828
▁일어나	-10.3829
▁리비아	-10.3843
▁가야	-10.3843
▁남쪽	-10.3846
▁입수	-10.3848
션	-10.3849
번에	-10.3851
▁넘	-10.3852
d	-10.3854
엘	-10.3856
▁中	-10.3857
▁방문한	-10.3857
▁입사	-10.3857
▁1%	-10.3863
▁서울의	-10.3866
▁꽃	-10.3866
▁방해	-10.3867
▁이끌어	-10.3869
▁벌어지	-10.3872
▁시행령	-10.3876
▁긴	-10.388
▁거론	-10.3881
▁힘들다	-10.3882
훈련	-10.3884
▁구도	-10.3886
▁부서	-10.389
▁전후	-10.389
협력	-10.389
▁체결	-10.3895
▁다르	-10.3906
▁분석도	-10.3909
▁당했다	-10.3913
▁자사고	-10.3914
▁국가대표	-10.3914
▁내년에	-10.3915
여성	-10.3919
▁시청률	-10.3927
▁김성	-10.3941
▁간의	-10.3942
억원에	-10.3946
▁깊이	-10.3949
▁않게	-10.3949
▁거뒀다	-10.3949
▁밀려	-10.3951
▁관중	-10.3951
▁북쪽	-10.3952
▁분노	-10.3953
▁동아일보	-10.3955
▁민주화	-10.3955
▁대외	-10.3956
▁관여	-10.3959
▁문화체육관광부	-10.3962
▁바른정당	-10.3967
▁목표를	-10.3967
▁앨범	-10.3972
▁연다	-10.3974
▁친박계	-10.3977
▁중순	-10.3978
▁참석해	-10.3979
▁신인	-10.398
객	-10.3985
▁비정규직	-10.3989
▁살해	-10.3991
역사	-10.3998
▁알게	-10.3998
▁시작해	-10.4002
▁폭발	-10.4009
명에게	-10.4014
▁박지원	-10.4015
슬	-10.4015
▁자영업자	-10.4017
쿠	-10.4017
▁국	-10.4017
▁전부	-10.402
▁민족	-10.4021
▁유권자	-10.4022
통합	-10.4029
새누리당	-10.4037
▁민주	-10.4037
▁집에서	-10.404
▁37	-10.4041
민주	-10.4045
▁포함돼	-10.4045
▁물을	-10.4046
평화	-10.4047
▁휴가	-10.405
▁임대	-10.4054
▁따라서	-10.4055
▁반발하	-10.4057
▁공격수	-10.4058
▁추진하고	-10.4066
▁건의	-10.4067
▁입원	-10.4068
▁차장	-10.4069
▁사흘	-10.4082
▁묻자	-10.4082
▁엄격	-10.4083
▁운행	-10.4083
▁벌어졌다	-10.4091
▁사유	-10.4092
▁46	-10.4093
▁이래	-10.4093
▁80%	-10.4094
▁생겼다	-10.4096
▁초대	-10.4103
▁수시	-10.4104
▁항공기	-10.4105
64	-10.4105
▁계파	-10.4112
▁정체성	-10.4114
장치	-10.4114
▁쪽이	-10.4115
▁경쟁이	-10.4118
6%	-10.4122
▁밝히지	-10.4123
일간	-10.4124
발전	-10.4124
▁관할	-10.4125
▁엔진	-10.4125
▁줄이기	-10.4128
▁위해선	-10.413
▁토론회	-10.4131
▁집에	-10.4132
▁드러난	-10.4135
▁수상	-10.4135
▁전역	-10.4137
시스템	-10.4139
▁예비	-10.4139
▁곳이	-10.4141
▁상정	-10.4146
패로	-10.4146
▁바람에	-10.4154
▁장애	-10.4156
▁지시했다	-10.4159
염	-10.416
본부장	-10.4164
가격	-10.4167
■	-10.4172
▁밴드	-10.4172
롯데	-10.4173
▁입장이다	-10.4176
더니	-10.4177
▁맛	-10.4178
▁제출한	-10.4178
▁직장인	-10.4184
▁제공하는	-10.419
단지	-10.4191
▁얻을	-10.4191
▁몰아	-10.4192
▁손해배상	-10.4192
▁살려	-10.4198
▁합동	-10.4203
▁펼쳐	-10.4204
자마자	-10.4208
▁진정	-10.421
▁탈락	-10.421
아무개	-10.4213
▁상징	-10.4215
▁구호	-10.4217
엽	-10.4217
▁캠페인	-10.4217
▁승용차	-10.4217
▁급격	-10.4218
▁절감	-10.422
▁개통	-10.422
▁폭행	-10.4222
▁상태에서	-10.4222
▁헤	-10.4223
▁걸려	-10.4223
▁이대호	-10.4225
▁초과	-10.4226
▁임무	-10.4228
▁오케스트라	-10.4229
▁금감원	-10.4229
▁소지	-10.4231
▁공방	-10.4231
▁목숨	-10.4232
▁처리를	-10.4237
▁봉	-10.424
▁어린이집	-10.424
▁비핵화	-10.4241
▁아니었다	-10.4245
▁말라	-10.4246
▁삼진	-10.4252
▁만들겠다	-10.4252
▁평생	-10.4252
▁치열한	-10.4252
검찰	-10.4255
▁소녀	-10.4258
▁생각하는	-10.4259
경영	-10.426
있는	-10.4261
만여	-10.4265
▁특징	-10.4266
박물관	-10.4266
했습니다	-10.4269
▁땅을	-10.4269
▁접근	-10.4274
▁ᄀ씨	-10.4274
▁빠져	-10.4275
▁41	-10.4277
▁완성	-10.4284
▁내놓고	-10.4294
▁수준이다	-10.4294
▁개방	-10.4295
▁시선	-10.4295
궁	-10.4296
▁쌀	-10.4297
▁판단했다	-10.4297
좌	-10.4298
적이고	-10.43
▁탈북자	-10.4303
▁과정에	-10.4308
▁내야	-10.4311
▁결정적	-10.4314
▁호주	-10.4326
경찰서	-10.4327
▁결의	-10.4328
▁섬	-10.4331
회장	-10.4333
▁존중	-10.4335
▁풍	-10.4336
법인	-10.4344
해도	-10.4347
35	-10.435
▁늘려	-10.4351
▁올려	-10.4352
▁120	-10.4352
▁챔피언스리그	-10.4354
▁국외	-10.4355
▁생애	-10.4355
▁일어난	-10.4355
▁대검	-10.4357
▁터뜨렸	-10.436
▁피의자	-10.436
·1	-10.4361
▁희토류	-10.4363
▁한글	-10.4365
▁숨	-10.437
IT	-10.4372
▁국정조사	-10.4373
스터	-10.4378
▁신임	-10.4378
▁기록하며	-10.4381
▁이견	-10.4382
▁일하는	-10.4383
▁중에서	-10.4387
▁정황	-10.4387
▁토지	-10.4388
▁실시한	-10.4391
4%	-10.4393
▁실행	-10.4395
▁그리	-10.4397
▁신조	-10.4398
▁손에	-10.4406
▁방안이	-10.4407
▁타임스	-10.4413
66	-10.4419
▁작	-10.4425
▁스타일	-10.4426
▁지진	-10.4427
▁대만	-10.4429
▁증시	-10.4432
V	-10.4432
▁밟	-10.4446
팔	-10.4447
학자	-10.4451
中	-10.4451
빙	-10.4451
▁본격	-10.4454
▁경매	-10.4457
▁봉사	-10.4457
장에	-10.4464
▁있다며	-10.4465
▁선생	-10.4469
▁포함된	-10.447
▁물량	-10.4479
▁방향으로	-10.448
곳은	-10.4481
▁잊	-10.4481
▁삼성의	-10.4483
▁운전자	-10.4485
탕	-10.4486
▁불가피	-10.4488
▁다섯	-10.4488
▁앉아	-10.4489
▁인건비	-10.4493
▁통합진보당	-10.4493
껏	-10.4493
오랫	-10.4493
▁교통사고	-10.4494
▁기준금리	-10.4494
▁종류	-10.4495
▁원에	-10.4498
▁재료	-10.4506
▁검색	-10.4513
▁지방자치단체	-10.4513
▁성매매	-10.4513
▁집안	-10.4513
▁탈북	-10.4516
▁압력	-10.4522
름	-10.4523
▁전교조	-10.4526
▁전자	-10.4529
▁죄	-10.4529
▁매체	-10.4534
곳을	-10.4535
▁밖	-10.4536
▁조합	-10.4539
▁NC	-10.454
▁홍준표	-10.4544
▁증가했다	-10.4549
이제	-10.455
▁축	-10.455
▁식당	-10.4551
67	-10.4552
쳤다	-10.4554
▁예전	-10.4558
▁조언	-10.4561
▁귀국	-10.4563
▁페	-10.4568
사실	-10.4572
▁촉구	-10.4572
▁활발	-10.4573
됐기	-10.4573
▁중반	-10.4574
▁명령	-10.4577
세대	-10.4578
▁바라보	-10.4578
▁양상	-10.4582
죄	-10.4582
▁원주	-10.4583
투표	-10.4584
핵	-10.4584
▁부르	-10.4586
▁대로	-10.4587
먹	-10.4588
경쟁	-10.4589
▁상장	-10.459
-2	-10.4591
홈런	-10.4592
▁당국이	-10.4602
중앙	-10.4603
▁말하는	-10.4605
▁수험생	-10.4609
▁차지	-10.4612
▁생각해	-10.4613
▁중대	-10.4614
▁코스	-10.4619
(12	-10.4619
▁여는	-10.4619
▁사업자	-10.462
▁뿌리	-10.4622
▁퇴직	-10.4624
폐	-10.4625
▁한은	-10.4626
▁클럽	-10.4627
▁평양	-10.4629
▁영역	-10.4629
▁연말	-10.463
▁함	-10.4633
▁케이블	-10.4634
▁돕는	-10.4634
▁저렴	-10.4634
▁확충	-10.4634
▁비공개	-10.4635
▁불구속	-10.4636
▁또다시	-10.4637
▁아이티	-10.4638
들에	-10.4639
▁주목된다	-10.464
▁미칠	-10.4642
▁내주	-10.4642
▁이례적	-10.4642
▁칼	-10.4643
▁거액	-10.4645
▁여수	-10.4648
▁각오	-10.4649
▁떨어졌다	-10.4651
▁저소득층	-10.4654
공원	-10.4657
▁콘서트	-10.4661
▁일가	-10.4662
▁저항	-10.4663
▁명예	-10.4663
▁-	-10.4663
달라	-10.4665
▁한때	-10.4671
▁내각	-10.4671
원이	-10.4672
▁뇌	-10.4673
게임	-10.4673
▁담배	-10.4674
▁자극	-10.4677
▁향상	-10.468
▁논란에	-10.4681
▁유족	-10.4685
mm	-10.4688
▁내수	-10.4688
▁언어	-10.4691
▁새누리당이	-10.4694
▁증세	-10.4696
▁법인세	-10.4698
▁학원	-10.47
여야	-10.4701
▁남부	-10.4701
했는지	-10.4701
▁내어	-10.4702
▁싸	-10.4711
▁3%	-10.4712
▁청와대와	-10.4713
통일	-10.4713
38	-10.4714
▁얻어	-10.4718
▁살인	-10.4745
자의	-10.4745
75	-10.4747
코리아	-10.4748
%	-10.4756
▁응답	-10.4757
▁0.3	-10.4762
▁지하철	-10.4777
▁구제역	-10.4777
▁있으나	-10.4778
▁입찰	-10.4779
▁위에	-10.478
▁추정된다	-10.478
▁월급	-10.478
▁살리기	-10.4782
▁몫	-10.4784
▁자제	-10.4785
▁모르겠다	-10.4788
사의	-10.4788
▁90%	-10.4789
당한	-10.4789
▁뛰어	-10.4792
▁높았다	-10.4792
▁해임	-10.4792
▁연예인	-10.4793
▁정치자금	-10.4794
▁개의	-10.48
▁강정호	-10.48
▁면담	-10.4803
데다	-10.4806
겼다	-10.4807
▁용산	-10.4807
▁예금	-10.481
▁한국을	-10.4814
▁인증	-10.4821
▁보인	-10.4822
렸	-10.4823
▁박물관	-10.4824
▁재개발	-10.4825
▁독	-10.483
▁용인	-10.4831
▁선수로	-10.4832
대상	-10.4835
에너지	-10.4838
▁극장	-10.484
▁선거에서	-10.4841
56	-10.4843
하나	-10.4844
55	-10.4844
FA	-10.4844
이냐	-10.4845
▁혹	-10.4852
지요	-10.4861
▁메시	-10.4865
▁만화	-10.4865
탁	-10.4873
(9	-10.4877
▁공유	-10.4877
▁세워	-10.4879
▁막대	-10.4879
▁장치	-10.4882
담당	-10.4882
눈	-10.4883
9000	-10.4884
▁이모	-10.4885
▁본선	-10.4885
오늘	-10.4887
▁근처	-10.4888
▁자본	-10.4891
▁화가	-10.4894
▁수학	-10.4906
▁제기된	-10.4909
▁갔다	-10.4909
▁제거	-10.4911
▁할머니	-10.4912
렌	-10.4916
▁재직	-10.492
▁인재	-10.4921
▁랭킹	-10.4922
읍	-10.4922
▁내에	-10.4922
▁아이디어	-10.4923
▁완공	-10.4923
▁단축	-10.4924
▁규명	-10.4925
▁레이스	-10.4926
▁추산	-10.4934
▁티켓	-10.4937
▁추신수	-10.494
▁비례대표	-10.494
▁체력	-10.4946
칭	-10.4947
▁특조위	-10.495
효과	-10.4951
▁정밀	-10.4954
겠지만	-10.4954
▁미치는	-10.4954
▁계층	-10.4955
▁먹는	-10.4956
68	-10.4958
생명	-10.4959
(11	-10.4959
나무	-10.4961
▁폭로	-10.4967
▁카메라	-10.4969
▁든다	-10.497
▁그러	-10.4971
▁지켜	-10.4974
▁기금	-10.4981
▁법관	-10.4987
▁신중	-10.4987
▁새롭	-10.4987
취	-10.4989
▁사회의	-10.4997
▁화성	-10.5
▁국민에게	-10.5002
▁짜	-10.5002
▁원내	-10.5004
▁벌여	-10.5012
부대	-10.5016
▁않기	-10.5016
혁신	-10.5016
▁곳에	-10.502
53	-10.5023
▁구청	-10.5025
▁줬다	-10.5027
▁전인	-10.503
▁다룬	-10.5031
스포츠	-10.5035
▁재미	-10.5036
▁기계	-10.5036
65	-10.5036
정권	-10.5037
도시	-10.5038
칙	-10.5038
그동안	-10.5038
▁해당하는	-10.5039
▁걸린	-10.5039
▁엄	-10.5042
▁봐	-10.5057
▁의뢰	-10.5058
▁입시	-10.5059
▁폐	-10.506
▁신속	-10.5061
▁처분	-10.5062
▁수주	-10.5064
엠	-10.5069
▁박지성	-10.507
▁거두	-10.507
▁박태환	-10.507
―	-10.5071
▁추락	-10.5071
▁둘째	-10.5071
▁무실점	-10.5071
▁통증	-10.5071
▁전원	-10.5071
▁소형	-10.5073
▁거친	-10.5078
▁늘어났다	-10.5078
▁공포	-10.5078
▁걸렸다	-10.5078
▁방식이	-10.5079
▁워	-10.5082
▁학생이	-10.5085
▁특허	-10.5091
▁제외하고	-10.5092
▁비용이	-10.5094
▁출장	-10.5097
▁거대	-10.5098
기금	-10.5099
▁높여	-10.5102
착	-10.511
▁받았	-10.5113
▁홈페이지	-10.5114
▁6·25	-10.5115
▁푸	-10.5115
홀	-10.5116
▁공항	-10.5116
▁쌓	-10.5117
▁이때	-10.5122
▁의식	-10.5124
▁압도적	-10.513
n	-10.5131
견	-10.5142
▁합의한	-10.5144
▁찾지	-10.5147
▁회장과	-10.5149
▁생긴	-10.5153
▁환영	-10.5154
제가	-10.5156
음을	-10.5157
▁일선	-10.5162
▁연평도	-10.5164
▁결승	-10.5168
▁분류	-10.5168
▁후보들	-10.5172
▁연합	-10.5173
▁놀	-10.5176
벨	-10.5178
▁한국방송	-10.518
▁벌이는	-10.518
▁쟁점	-10.5182
北	-10.5186
▁모은	-10.5187
▁나서는	-10.5187
▁안건	-10.5188
▁가스	-10.5191
▁일본은	-10.5194
▁유명한	-10.5194
▁마련한	-10.5198
함에	-10.5198
▁부당	-10.5198
▁지위	-10.52
▁추구	-10.5204
신문	-10.5204
사랑	-10.5205
▁해법	-10.5205
▁보급	-10.5206
▁가을	-10.5206
▁2%	-10.5208
교사	-10.521
▁가게	-10.521
▁파일	-10.5212
확	-10.5213
▁패션	-10.5218
▁타결	-10.5222
▁있을까	-10.5225
▁지내	-10.5225
▁늦	-10.5226
▁맞지	-10.5235
▁물건	-10.5236
▁토대로	-10.5236
▁폐기	-10.5237
▁일이다	-10.5241
▁정국	-10.5245
72	-10.5246
행사	-10.5247
▁철도	-10.5247
▁기업인	-10.5248
▁지난주	-10.5252
▁프리미엄	-10.5253
1%	-10.5262
▁사이버	-10.5266
33	-10.5269
▁잇는	-10.527
▁학습	-10.5276
▁이씨	-10.5277
▁공개된	-10.5279
▁2500	-10.528
걸	-10.5285
▁지표	-10.5288
▁안내	-10.5292
▁두번째	-10.5295
▁알리	-10.5295
▁메모	-10.53
▁마리	-10.5301
▁J	-10.5304
▁누리집	-10.5305
▁기자들	-10.5306
▁피해가	-10.5314
▁가득	-10.5316
▁가서	-10.5316
▁논쟁	-10.5317
u	-10.532
200	-10.5322
▁담아	-10.5324
▁노사	-10.5329
▁정상회의	-10.5332
▁남기	-10.5333
▁라디오	-10.5334
였고	-10.5335
▁지식	-10.5337
올림픽	-10.534
안철수	-10.5341
곧	-10.5341
트럼프	-10.5342
▁본격화	-10.5342
▁건축	-10.5342
▁언급한	-10.5345
▁이적	-10.5346
▁때보다	-10.5348
▁시사	-10.5352
시에	-10.5357
▁수집	-10.5358
▁꼽히는	-10.536
▁마감	-10.5361
▁소설가	-10.5361
▁골을	-10.5362
82	-10.5368
왔던	-10.537
▁자칫	-10.537
▁진보신당	-10.537
▁가처분	-10.537
▁한도	-10.5371
▁웃었다	-10.5372
▁자택	-10.5372
▁대표이사	-10.5373
▁강화하는	-10.5374
▁앞세워	-10.5374
▁조사에서	-10.5375
▁열릴	-10.5376
▁견해	-10.5377
▁공백	-10.5377
▁학부모	-10.5377
▁쓰지	-10.538
▁키우	-10.5381
▁해체	-10.5382
▁일각에서	-10.5383
▁첫날	-10.5383
▁인선	-10.5384
▁상가	-10.5387
▁완벽	-10.5388
▁교황	-10.5389
▁무관	-10.5391
▁지켜보	-10.5392
c	-10.5393
▁맞게	-10.5393
▁맞고	-10.5394
▁일종	-10.5397
▁인프라	-10.5399
▁사면	-10.54
▁철학	-10.5402
농	-10.5405
▁그러면서	-10.5406
텔레콤	-10.5407
▁포털	-10.5408
▁더민주	-10.5415
300	-10.5415
▁밖으로	-10.5417
▁뉴욕타임스	-10.542
▁기자들과	-10.5422
구나	-10.5423
▁맡았다	-10.5425
▁들어가는	-10.543
정작	-10.543
▁감면	-10.543
▁희생	-10.5432
▁주전	-10.5433
▁고등학교	-10.5434
▁끌고	-10.5439
▁IS	-10.5442
대화	-10.5444
46	-10.5445
▁고개	-10.5446
▁민주주의	-10.5454
▁작가는	-10.5458
▁보좌관	-10.546
▁뛰	-10.5461
▁차기	-10.5462
중인	-10.5464
▁뽑	-10.5475
▁강세	-10.5484
▁결정할	-10.5488
되자	-10.5494
맨	-10.5495
▁결과는	-10.55
▁국방	-10.5507
구속	-10.5509
▁의제	-10.5514
능력	-10.5515
▁확인한	-10.5521
▁에스케이텔레콤	-10.5525
▁마쳤다	-10.5525
▁감안해	-10.5525
▁알리는	-10.5526
▁주검	-10.5526
▁개설	-10.553
▁배우들	-10.5531
직을	-10.5532
▁보여줬다	-10.5532
▁내놓았다	-10.5533
▁부자	-10.5537
▁벌써	-10.5539
▁무엇보다	-10.554
▁교환	-10.554
▁이뤄졌다	-10.5542
로서는	-10.5542
▁넘어서	-10.5546
▁틈	-10.5547
▁다저스	-10.5548
▁승진	-10.5549
▁양산	-10.555
▁전자랜드	-10.5554
▁선관위	-10.5556
▁프	-10.5556
▁강조한	-10.5559
▁부사장	-10.556
▁미국에서	-10.5562
▁전투기	-10.5566
▁건강보험	-10.5568
▁요구에	-10.557
▁진로	-10.5572
위원회는	-10.5572
▁발생할	-10.5576
▁아름다운	-10.558
▁춤	-10.558
리스	-10.5582
▁39	-10.5583
▁규정하고	-10.5584
▁샷	-10.5585
▁출마를	-10.5592
▁걸고	-10.5593
▁전시회	-10.5597
었고	-10.5602
79	-10.5602
▁조씨	-10.5613
야당	-10.5625
▁기자간담회	-10.5632
▁각자	-10.5633
▁품	-10.5636
국장	-10.5638
▁자신들	-10.5642
▁국제사회의	-10.5642
점차	-10.5645
▁강연	-10.5646
▁지상	-10.5649
음악	-10.565
빛	-10.5652
쇼	-10.5654
EU	-10.5655
▁연방	-10.5656
러시아	-10.5656
아파트	-10.5657
이명박	-10.5657
▁보험	-10.5661
▁매력	-10.567
▁주자	-10.5672
▁48	-10.5674
▁최소한	-10.5679
▁크	-10.568
▁국가정보원	-10.568
▁칭찬	-10.568
▁쏠리	-10.568
▁태어난	-10.568
▁부장검사	-10.568
▁찬반	-10.5681
프로	-10.5684
▁항상	-10.5685
▁개별	-10.5686
▁진학	-10.5687
▁양쪽	-10.5687
▁잡았다	-10.5694
▁호소했다	-10.5699
▁아이폰	-10.5705
▁경주	-10.5707
▁유승민	-10.5708
▁상봉	-10.571
▁흐름을	-10.5712
머	-10.5719
곳에	-10.572
▁코리아	-10.5722
▁시청	-10.5724
▁매달	-10.5725
야드	-10.5726
▁IT	-10.573
▁수리	-10.573
▁개발한	-10.5731
▁첨단	-10.5733
▁공략	-10.5736
▁쉬	-10.5737
▁부인했다	-10.5746
▁광	-10.5746
번홀	-10.5747
▁발생했다	-10.5755
▁비결	-10.5757
▁출신으로	-10.5759
자에게	-10.5763
▁활용한	-10.5765
▁삼성전자는	-10.5786
▁근거로	-10.579
▁의한	-10.5791
▁55	-10.5794
▁동원해	-10.5795
▁중학교	-10.5804
사고	-10.5809
외교	-10.5814
▁정도의	-10.5817
▁범인	-10.5818
▁부지	-10.5818
▁뭐	-10.5819
▁경기에	-10.5822
▁승점	-10.5822
▁변호인	-10.5827
분기에	-10.583
둥	-10.5832
▁모색	-10.5832
실장은	-10.5833
▁최저	-10.5833
▁카타르	-10.5834
▁F	-10.5834
▁방법이	-10.5834
▁용역	-10.5835
▁옮기	-10.5839
▁최하위	-10.5839
▁나아가	-10.5839
▁담겨	-10.5839
▁지닌	-10.584
▁이뤄질	-10.584
▁명칭	-10.584
▁호소	-10.5841
▁에이스	-10.5842
▁아이돌	-10.5842
▁생길	-10.5842
▁능력이	-10.5845
▁일반인	-10.5846
▁오피스텔	-10.5846
▁반정부	-10.5846
▁불과하다	-10.5846
▁버리	-10.5846
▁공주	-10.5846
이었지만	-10.5847
▁배려	-10.585
▁메이저	-10.5851
▁위험이	-10.5851
▁어깨	-10.5853
▁총액	-10.5853
▁육	-10.5854
▁둘러싸고	-10.5856
개월간	-10.586
광주	-10.5865
화를	-10.5867
자료	-10.5868
▁독점	-10.5869
”[	-10.5869
▁남중국해	-10.587
▁해경	-10.5875
▁씨를	-10.5881
▁고전	-10.5882
▁등판	-10.5884
▁침묵	-10.5885
버스	-10.5886
▁기타	-10.5887
▁49	-10.5888
▁로봇	-10.5893
▁있었고	-10.59
71	-10.5903
▁경찰청	-10.5906
▁한쪽	-10.5908
▁‘4	-10.5917
씨에게	-10.5922
연대	-10.5923
▁인수위	-10.5925
▁제출했다	-10.5931
득	-10.5935
▁아니	-10.5944
▁흔	-10.5945
▁지목	-10.595
▁수백	-10.5958
▁맹	-10.5958
95	-10.5968
꺼	-10.5972
500	-10.5974
청소년	-10.5975
▁군사적	-10.5976
▁개발에	-10.5978
▁대기	-10.5979
日	-10.598
왜	-10.5981
미디어	-10.5983
▁해양	-10.5983
▁받으면	-10.5985
으려	-10.5986
재정	-10.599
운영	-10.5992
공간	-10.5992
현직	-10.5993
▁인용	-10.5993
▁인권위	-10.5995
▁실종	-10.5997
▁붕괴	-10.6
해질	-10.6
▁발탁	-10.6001
인사	-10.6002
▁울	-10.6002
▁높였다	-10.6002
▁선배	-10.6003
▁분량	-10.6007
▁취재	-10.6008
▁재건축	-10.6009
▁비준	-10.601
▁롯데그룹	-10.6011
▁조속	-10.6014
▁과세	-10.602
▁챔피언십	-10.6022
▁퇴임	-10.6026
분석	-10.6026
▁뇌물	-10.603
▁이끌었다	-10.6032
▁대학에	-10.6033
▁피아노	-10.6038
▁김기	-10.6038
▁원이	-10.6039
▁경영권	-10.6042
문을	-10.6046
▁출국	-10.6046
▁노리	-10.6048
▁세부	-10.6049
▁불황	-10.605
▁제기했다	-10.605
실에서	-10.6051
▁무조건	-10.6051
▁내면	-10.6052
▁트	-10.6054
▁제조업	-10.6055
▁일도	-10.6056
▁별도의	-10.6058
기획	-10.6058
▁규칙	-10.6058
▁LPGA	-10.6059
▁수비수	-10.606
▁대선에서	-10.6064
위인	-10.6064
▁악	-10.6067
▁기업에	-10.6075
76	-10.6077
▁막고	-10.6082
▁특별법	-10.6083
▁사용한	-10.6084
▁임직원	-10.6085
▁착수	-10.6085
▁수준에	-10.6092
수가	-10.6097
▁前	-10.6098
▁밑	-10.6104
▁상원	-10.6113
개가	-10.6118
▁이끌고	-10.6123
기자	-10.6132
▁면제	-10.6132
▁여지	-10.6134
▁봐야	-10.6135
▁취약	-10.614
컵	-10.6141
원은	-10.6142
(16	-10.6142
▁테	-10.6145
▁성남시	-10.6147
뉴욕	-10.6148
끼리	-10.6152
았던	-10.6154
▁차질	-10.6155
▁총리와	-10.6157
▁멤버	-10.6159
▁광장	-10.6161
▁저축은행	-10.6162
▁700	-10.6163
하되	-10.6163
▁나타냈다	-10.6164
▁내세워	-10.6164
▁카지노	-10.6164
딩	-10.6164
▁레이더	-10.6165
▁고정	-10.6165
▁남녀	-10.6166
▁책은	-10.6167
▁초래	-10.6169
▁일본이	-10.6171
▁세웠다	-10.6174
▁정도다	-10.6174
▁가난	-10.6176
▁뒤집	-10.6177
▁민주노동당	-10.6178
▁엄청	-10.6178
▁1·2	-10.618
▁금융감독원	-10.6181
▁핵무기	-10.6182
▁당의	-10.6182
▁탄도미사일	-10.6187
▁줄어	-10.6188
▁유럽연합	-10.6191
원장	-10.6196
▁결핵	-10.6197
▁강사	-10.6198
▁아빠	-10.62
▁환	-10.6206
87	-10.6207
▁지배	-10.6209
▁수녀	-10.6213
시위	-10.6214
▁공기업	-10.6215
▁장점	-10.6216
▁위상	-10.6216
▁경찰관	-10.6218
▁평가가	-10.6222
장에서	-10.6222
▁안다	-10.6228
▁목사	-10.623
▁대상에	-10.6235
호기	-10.6238
▁라인	-10.6244
▁관측	-10.6247
▁떨어진다	-10.6249
▁사망한	-10.6249
▁위원회	-10.625
린다	-10.6251
▁없애	-10.6252
▁강화하고	-10.6254
▁맡았	-10.6257
▁곳이다	-10.6261
▁총선에서	-10.6262
▁운영하고	-10.6274
▁웃음	-10.6278
▁교육감	-10.6279
▁그해	-10.6279
심사	-10.6284
▁통상	-10.6285
▁참여할	-10.6286
줘	-10.6302
▁빅	-10.6309
해달라	-10.6309
▁부회장은	-10.6309
▁체류	-10.631
앤	-10.6314
X	-10.6315
▁창작	-10.6316
시험	-10.6318
▁선언한	-10.6318
▁다니는	-10.6318
▁병사	-10.6319
▁전략적	-10.6321
▁보내는	-10.6321
▁인정받	-10.6321
시키고	-10.6321
▁화학	-10.6323
▁법원이	-10.6324
곳이	-10.6325
▁곡	-10.6326
▁추적	-10.6327
▁국무장관	-10.633
▁꼼꼼	-10.633
▁않지만	-10.633
▁메달	-10.6331
▁호응	-10.6331
▁액수	-10.6331
▁인턴	-10.6332
▁독려	-10.6332
▁인류	-10.6333
▁유죄	-10.6334
▁커질	-10.6335
▁않을까	-10.6336
▁참배	-10.6338
▁주류	-10.6341
▁팔아	-10.6343
▁빠졌다	-10.6347
▁서울시교육청	-10.6348
▁임용	-10.6349
▁포스코	-10.6351
▁지지층	-10.6351
▁노동자들	-10.6351
▁교원	-10.6352
▁생산량	-10.6353
▁손흥민	-10.6354
▁음	-10.6361
▁증여	-10.6364
▁아는	-10.6366
▁딴	-10.6366
▁레알	-10.6367
▁사업장	-10.6371
▁심각	-10.638
▁일본에서	-10.638
▁수수료	-10.6381
▁시기에	-10.6383
▁정부에서	-10.6384
▁통계	-10.6388
▁요건	-10.6389
▁발휘	-10.6393
99	-10.6393
▁얼굴을	-10.6394
▁맥	-10.6395
▁감소했다	-10.6396
▁공무원연금	-10.6397
사무소	-10.6401
▁드러내	-10.6403
▁E	-10.6405
▁교육청	-10.6408
▁연구소	-10.6408
▁성공한	-10.6409
▁KBO	-10.6411
▁것이었다	-10.6412
없는	-10.6412
흥	-10.6414
▁한달	-10.6416
▁부정적인	-10.6418
▁배출	-10.6419
▁흔들	-10.642
▁“1	-10.6427
▁47	-10.6433
▁치른	-10.6433
▁적절	-10.6434
▁표명	-10.6435
▁해고	-10.6435
▁T	-10.6439
▁것보다	-10.644
▁줄여	-10.6442
▁꺼내	-10.6443
▁탄력	-10.6446
▁공단	-10.6449
▁공문	-10.6449
▁조지	-10.645
▁부장	-10.6451
금을	-10.6455
▁곳으로	-10.6455
지수	-10.6457
▁고소	-10.6464
표를	-10.6468
▁항공	-10.6468
in	-10.6472
▁정면	-10.6472
▁났다	-10.6473
73	-10.6474
▁빠지	-10.6486
▁관객들	-10.6486
▁하던	-10.6489
▁관람객	-10.6492
전에	-10.6493
랄	-10.6496
▁나오지	-10.6498
▁때문이라	-10.65
▁관람	-10.65
▁데이비드	-10.65
▁바이러스	-10.65
▁신부	-10.6501
▁타이	-10.6501
▁국토교통부	-10.6501
▁열람	-10.6502
▁다니	-10.6504
▁활동에	-10.6504
▁담았다	-10.6505
▁최고경영자	-10.6508
▁멋	-10.6508
▁철수	-10.6511
▁달렸다	-10.6511
절차	-10.6514
▁국방장관	-10.6515
▁대대적	-10.6516
▁조명	-10.6518
▁앉	-10.6519
▁용의자	-10.6521
▁1994	-10.6521
▁뜻이	-10.6521
▁구실	-10.6522
▁개편안	-10.6522
▁선거운동	-10.6525
▁눈치	-10.6527
▁곽	-10.6527
▁행태	-10.6532
▁규모로	-10.6539
89	-10.6543
▁똑같	-10.6554
두에	-10.6557
▁합	-10.6559
▁청탁	-10.6559
▁이어지고	-10.6562
▁주장하고	-10.6564
세력	-10.6568
▁민원	-10.6569
▁담당자	-10.657
▁갖추	-10.657
▁신형	-10.6572
▁폴	-10.6573
자들의	-10.6576
▁힘들어	-10.6583
▁내역	-10.6591
▁전격	-10.6592
▁홀로	-10.66
▁앓	-10.6605
▁만약	-10.6605
▁사용자	-10.6605
▁한국시리즈	-10.6611
▁부정적	-10.6615
▁받아들이	-10.662
63	-10.662
▁책임지	-10.6624
▁중도	-10.6625
▁계	-10.6635
39	-10.6636
개인	-10.6637
수를	-10.6639
▁납치	-10.6645
▁면	-10.6646
대의	-10.6648
▁유학생	-10.6651
▁김종	-10.6664
뒤	-10.6664
SNS	-10.6664
FTA	-10.6666
▁같아	-10.6671
▁나쁜	-10.6672
▁흑자	-10.6673
▁명문	-10.6675
▁일각	-10.6675
곳에서	-10.6675
▁복무	-10.6676
▁다음날	-10.6679
▁불가능하다	-10.6679
▁입국	-10.6679
▁확보한	-10.6681
▁편의점	-10.6682
▁외면	-10.6682
▁여유	-10.6684
▁제기됐다	-10.6685
▁떠났다	-10.6685
▁바뀌었다	-10.6686
▁티셔츠	-10.6687
▁주역	-10.6689
▁동북아	-10.6691
생산	-10.6692
▁네덜란드	-10.6693
▁오염	-10.6695
▁가이드라인	-10.6697
▁외치	-10.6697
▁열정	-10.6698
▁단어	-10.6702
▁접전	-10.6703
▁승객	-10.6703
에게서	-10.6703
▁기간이	-10.6703
▁거세	-10.6704
휴	-10.6705
▁시급	-10.6705
▁못하면	-10.6708
▁투명	-10.671
▁맥주	-10.6711
▁국세청	-10.6714
▁이겼다	-10.6717
▁감안하면	-10.6718
▁주민들이	-10.6723
▁느끼	-10.673
▁합리적	-10.6732
▁과목	-10.6733
란히	-10.6742
▁잡기	-10.6747
명이다	-10.6747
▁한강	-10.6748
▁청와대에서	-10.6749
▁최고치	-10.6751
▁특	-10.6752
▁대상에서	-10.6758
▁침	-10.6767
b	-10.677
▁초안	-10.677
▁양자	-10.6771
이라면서	-10.6784
▁날씨	-10.6786
▁식품	-10.6789
▁근무하	-10.679
▁루	-10.6793
▁할지	-10.6794
▁쪽에서	-10.6797
▁문서	-10.6802
▁완료	-10.6802
보험	-10.6807
▁소화	-10.6809
▁늘어나는	-10.681
▁정년	-10.681
있다	-10.6814
우리가	-10.6818
▁사기	-10.6821
▁여기	-10.6821
▁화면	-10.6824
▁역량	-10.6824
▁선포	-10.6828
축제	-10.6828
킬	-10.6829
과거	-10.683
▁고스	-10.6841
공무원	-10.6843
최순실	-10.6843
바른	-10.6843
▁준비하	-10.6844
테러	-10.6844
▁증가한	-10.6844
34	-10.6847
▁끊임없	-10.6848
▁바꿨다	-10.6848
▁왼손	-10.6848
▁내세운	-10.6848
▁신한은행	-10.6848
▁에어컨	-10.6848
▁대우조선해양	-10.6848
처리	-10.6848
금액	-10.6848
▁창립	-10.6849
▁코스피	-10.6849
▁질병	-10.6851
▁발목	-10.6852
▁종합하면	-10.6855
▁남긴	-10.6855
▁이어갔다	-10.6855
▁회원국	-10.6859
▁이산가족	-10.6863
▁태	-10.6863
▁실종자	-10.6864
78	-10.6864
▁높아지고	-10.6866
▁비주류	-10.6866
86	-10.6867
▁불신	-10.687
▁차지한	-10.687
▁대주주	-10.6872
▁수수	-10.6873
경남	-10.6874
▁씨와	-10.6875
퇴	-10.6878
▁결정이	-10.6879
▁보유하고	-10.6881
▁신작	-10.6884
▁진짜	-10.6886
▁여성이	-10.6886
▁항목	-10.6887
▁불과했다	-10.6889
▁취득	-10.6889
▁중요성	-10.689
학원	-10.689
▁크지	-10.6895
▁데이터	-10.6895
▁텔레비전	-10.6895
관광	-10.69
▁출판사	-10.6901
▁부시	-10.6906
루수	-10.6908
▁800	-10.691
▁발언은	-10.691
▁영토	-10.6912
▁짓	-10.6913
▁되어	-10.6913
▁참전	-10.6915
▁않았고	-10.6917
▁총괄	-10.6918
▁군부	-10.692
율이	-10.6925
▁높이기	-10.6926
▁선보였	-10.6928
▁MBC	-10.6932
▁불교	-10.6933
▁캐	-10.6933
▁예정인	-10.6934
32	-10.6935
▁본지	-10.6942
▁사건과	-10.6944
▁세계에서	-10.6948
▁우려도	-10.6953
”“	-10.6958
▁끈	-10.6963
▁팽팽	-10.6963
▁마련했다	-10.6964
▁맞추	-10.6965
▁든	-10.6966
▁세수	-10.6971
조치	-10.6977
교수	-10.6979
▁위원장이	-10.698
▁배당	-10.6985
▁동참	-10.6985
서도	-10.6987
▁대통령에	-10.699
▁얼	-10.699
(15	-10.6994
43	-10.6995
▁성적이	-10.6995
▁이끈	-10.6996
▁기각	-10.7006
▁내세우	-10.7006
▁재발	-10.7012
▁결심	-10.7014
▁품질	-10.7014
▁극단	-10.7015
▁한국어	-10.7015
쓰	-10.7018
킹	-10.7018
▁대중	-10.7021
▁꾸	-10.7021
찌	-10.7022
▁방법으로	-10.7024
콜	-10.7025
▁감찰	-10.7027
▁흑인	-10.7027
▁부총리	-10.7027
▁성능	-10.7027
▁급등	-10.7028
▁예외	-10.7029
부는	-10.703
▁사교육	-10.7033
문학	-10.7034
▁편집	-10.7037
▁무상급식	-10.7038
▁지음	-10.7039
식을	-10.704
었지만	-10.7041
▁따뜻	-10.7042
▁대량	-10.7043
됐으며	-10.7044
▁인용해	-10.7045
▁남측	-10.7045
▁상호	-10.7046
44	-10.7046
장비	-10.7053
라인	-10.7055
▁합작	-10.7056
▁교과부	-10.706
업무	-10.7063
▁北	-10.7065
▁없게	-10.7065
고교	-10.7065
▁높이고	-10.7065
▁만든다	-10.7066
현대	-10.7067
▁배정	-10.7069
▁비싼	-10.7069
▁화해	-10.7075
▁지어	-10.7076
▁금융당국	-10.7077
▁치매	-10.7078
▁개혁안	-10.7078
▁돌아오	-10.7079
▁당한	-10.7081
▁정서	-10.7081
▁1200	-10.7082
▁북측	-10.7084
▁공직자	-10.7094
서는	-10.71
▁추진한다	-10.711
▁불가	-10.7115
원을	-10.7118
▁마련할	-10.7124
▁보도자료	-10.7128
▁손상	-10.7129
▁수급	-10.713
▁전통적	-10.7131
▁겪는	-10.7137
▁선수단	-10.7137
청년	-10.7145
▁마라톤	-10.715
▁던지	-10.7156
▁이어져	-10.7158
▁참여했다	-10.716
수도	-10.7161
▁야당이	-10.7163
▁판결이	-10.7163
74	-10.7163
사항	-10.7164
▁오해	-10.7173
▁외에도	-10.7179
f	-10.7185
▁비교해	-10.7185
▁그간	-10.7186
들어	-10.7188
▁대법원장	-10.719
▁진행된	-10.7192
욕	-10.7199
솔	-10.7201
뉴	-10.7202
굴	-10.7203
~19	-10.7203
▁실망	-10.7207
▁살균제	-10.7208
▁유니폼	-10.7208
▁집행유예	-10.7208
▁일본인	-10.7208
▁임시국회	-10.7209
캠퍼스	-10.7209
▁적응	-10.721
로써	-10.721
美	-10.7211
▁만날	-10.7213
▁특유	-10.7214
▁과감	-10.7215
진보	-10.7215
▁아니지만	-10.7217
▁꾸려	-10.7217
▁들어갈	-10.7217
▁커졌다	-10.7218
▁주인	-10.722
▁소치	-10.7222
치는	-10.7223
h	-10.7226
▁싱가포르	-10.7227
▁팔레스타인	-10.7227
▁올릴	-10.7228
특위	-10.723
▁가졌다	-10.7231
▁경우도	-10.7232
▁열려	-10.7233
▁병역	-10.7235
▁말로	-10.7236
드리	-10.7241
▁1993	-10.7243
▁복수	-10.7246
▁연구개발	-10.725
▁보궐선거	-10.7251
▁금융권	-10.7253
▁고리	-10.7255
▁티	-10.7257
일자	-10.7258
하더라도	-10.7263
▁발급	-10.7268
연맹	-10.7268
▁이탈	-10.727
▁기증	-10.7271
▁소문	-10.7272
▁사라지	-10.7275
▁흘러	-10.7275
사드	-10.7279
만원씩	-10.728
여당	-10.728
▁개성	-10.7284
소리	-10.7289
▁공시	-10.7289
▁반대로	-10.7296
▁코트	-10.7303
▁돌려	-10.7303
량이	-10.7306
▁무사	-10.7311
▁54	-10.7311
인조	-10.7315
▁아니고	-10.7318
잡	-10.7318
▁전달했다	-10.7319
인권	-10.7319
▁톱	-10.7319
▁발견된	-10.7323
▁52	-10.7324
▁오가	-10.733
▁43	-10.7335
▁김태	-10.7335
48	-10.7338
▁설명회	-10.7342
졌	-10.7345
대출	-10.7347
▁완	-10.7352
▁세우	-10.7359
▁포럼	-10.7361
▁항	-10.737
▁잡는	-10.7371
▁계열	-10.7375
▁결합	-10.7376
사와	-10.7376
숨	-10.7377
▁당신	-10.7379
▁움직임이	-10.7382
▁현대자동차	-10.7392
▁쇼트트랙	-10.7393
▁근절	-10.7394
▁착용	-10.7395
▁라이벌	-10.7396
▁개척	-10.7397
▁신당	-10.7397
▁그나마	-10.7399
▁명목	-10.7399
뜨거운	-10.7399
세월호	-10.74
첫	-10.74
▁했으나	-10.7402
▁말레이시아	-10.7402
▁가면	-10.7402
▁높아졌다	-10.7402
분쯤	-10.7404
▁뜻으로	-10.7405
▁투구	-10.7406
▁오찬	-10.7408
당이	-10.7409
▁서거	-10.7411
법안	-10.7411
▁정한	-10.7412
▁변신	-10.7413
▁밝히	-10.7413
▁이메일	-10.7413
▁원내대표가	-10.7415
▁특별전	-10.7417
한반도	-10.7418
▁얼음	-10.742
▁1996	-10.742
▁찬	-10.7421
▁부족하다	-10.7421
▁왜곡	-10.7422
▁짐	-10.7424
국이	-10.7424
하다는	-10.7425
▁막아	-10.7427
(17	-10.7428
▁농	-10.7429
▁조례	-10.7434
▁연수	-10.7436
▁경제민주화	-10.7437
▁단장	-10.7439
허	-10.744
▁얻고	-10.744
▁브리핑에서	-10.7443
▁언론들은	-10.7445
▁신분	-10.7446
단은	-10.7446
▁투기	-10.7448
▁금융위	-10.7448
▁기자간담회에서	-10.7451
▁흔들리	-10.7455
▁25%	-10.7456
▁조절	-10.7461
CC	-10.7462
▁정기	-10.7463
▁방송사	-10.7464
리아	-10.7466
의료	-10.7469
▁미치지	-10.7471
▁논	-10.7473
주간	-10.7482
됐다는	-10.7486
▁요청한	-10.7488
검	-10.7488
했었다	-10.7489
▁무장	-10.749
지대	-10.7496
마을	-10.7499
축구	-10.7499
▁받아들여	-10.7501
▁동해	-10.7502
▁진지	-10.7503
버트	-10.7508
학기	-10.751
팀장은	-10.7513
▁자율	-10.7515
간다	-10.7516
▁기기	-10.7518
▁협정	-10.7521
▁국적	-10.7521
▁기구	-10.7522
▁칠	-10.7522
▁맡기	-10.7526
호선	-10.7532
54	-10.7532
▁참여해	-10.7533
▁용	-10.7536
▁하거나	-10.7538
▁악기	-10.7538
▁말도	-10.7544
▁아닌가	-10.7549
년여	-10.7556
▁계속되	-10.7557
▁출전한	-10.7561
엄	-10.7562
잔	-10.7565
▁쳐	-10.7565
▁현장에	-10.7569
▁아프간	-10.757
▁경기장	-10.758
▁학업	-10.7581
▁끊이	-10.7582
▁힘입어	-10.7582
벽	-10.7582
▁바꿀	-10.7582
▁일찍	-10.7583
▁서울고법	-10.7583
▁합계	-10.7585
▁처방	-10.7585
둘	-10.7585
▁경남기업	-10.7586
제작	-10.7588
▁교육과학기술부	-10.7588
▁우즈	-10.7589
▁당부했다	-10.759
클럽	-10.7591
▁자유무역협정	-10.7591
▁국가의	-10.7595
▁선보인	-10.7597
▁불출마	-10.7598
▁간판	-10.7602
▁지원하고	-10.7604
▁오키나와	-10.7605
력이	-10.7607
▁김씨가	-10.7608
▁정신적	-10.761
▁페이스북	-10.7611
▁만하다	-10.7611
차로	-10.7612
(29)	-10.7614
▁사내	-10.7616
▁실세	-10.7617
▁상영	-10.7618
▁전주	-10.762
▁우려했다	-10.7621
▁원고	-10.7623
▁인물이	-10.7623
준비	-10.7623
▁51	-10.7624
▁나오	-10.7624
▁연구위원	-10.7625
▁흥행	-10.7626
시티	-10.7626
▁연구진	-10.7628
▁정의당	-10.7635
▁열기로	-10.7636
▁경고했다	-10.7638
▁물었다	-10.7639
▁대부분이	-10.7643
나라	-10.7651
-1	-10.7654
▁명분	-10.7665
▁만들어진	-10.7667
▁치르	-10.7667
▁진행하는	-10.767
▁끌	-10.7672
▁경찰서	-10.7675
▁어려워	-10.7681
▁유물	-10.7683
▁수익성	-10.7684
▁피해자들	-10.7687
▁예상되는	-10.7691
62	-10.7694
특	-10.7695
▁조건으로	-10.7703
▁참가자	-10.7708
▁안산	-10.7709
▁향한	-10.7712
▁서초구	-10.7712
▁중소	-10.7714
▁봤	-10.7716
▁시간에	-10.7726
혼	-10.7729
했	-10.7729
▁사람에게	-10.773
▁의견도	-10.7732
단이	-10.7734
▁지적한	-10.7735
심을	-10.7736
▁포착	-10.7738
▁올해부터	-10.7739
▁비행	-10.7739
▁국면	-10.7741
▁한정	-10.7742
▁납품	-10.7745
▁아기	-10.7746
▁상태로	-10.7746
85	-10.7747
▁유감	-10.7754
▁되었다	-10.777
시청	-10.7771
▁넣어	-10.7774
▁지식경제부	-10.7774
▁겁니다	-10.7774
▁다툼	-10.7775
▁유사	-10.7775
▁외환은행	-10.7775
▁독특	-10.7775
▁익숙	-10.7775
▁꿈꾸	-10.7775
▁혈액	-10.7776
▁포격	-10.7776
▁통계청	-10.7776
▁취득세	-10.7777
▁6000	-10.7778
▁시의회	-10.7778
▁이중	-10.7778
▁장하나	-10.7778
▁여객기	-10.778
▁자회사	-10.778
죽	-10.7781
▁숨졌다	-10.7782
▁실체	-10.7782
▁걸릴	-10.7782
▁즉시	-10.7782
응	-10.7783
쉬운	-10.7784
▁갚	-10.7786
잘	-10.7788
▁뽑아	-10.7789
▁여기서	-10.7789
▁투자자	-10.779
▁협력업체	-10.779
▁네이버	-10.7791
▁비서실장	-10.7791
▁유전자	-10.7791
▁유행	-10.7791
▁싶었다	-10.7791
▁부위	-10.7792
▁결성	-10.7793
▁파악하고	-10.7802
▁공산당	-10.7804
▁북부	-10.7804
측은	-10.7805
▁EU	-10.7805
▁평택	-10.7807
원에서	-10.7807
▁경영진	-10.7807
▁도착	-10.7809
▁병력	-10.7812
단의	-10.7812
▁어선	-10.7813
▁맞대결	-10.7813
▁상환	-10.7815
경북	-10.7819
▁강조하는	-10.782
▁개원	-10.7821
▁갖춰	-10.7822
▁페스티벌	-10.7827
▁누구나	-10.7828
▁보복	-10.7829
▁희생자	-10.7831
83	-10.7832
더라	-10.7833
▁실태	-10.7834
▁노후	-10.7835
세로	-10.7847
▁원칙에	-10.7847
▁부패	-10.7848
▁억제	-10.7849
▁의석	-10.7849
▁주장한다	-10.7852
▁동력	-10.7853
자유	-10.7853
▁‘1	-10.7855
TF	-10.7861
▁기법	-10.7863
▁제기한	-10.7866
했어요	-10.7868
위기	-10.787
▁대장	-10.7875
▁입단	-10.7878
▁특사	-10.788
부문	-10.7883
▁오르는	-10.7886
▁만찬	-10.7887
▁인기가	-10.789
▁저장	-10.7893
52	-10.7897
-3	-10.7901
▁피고인	-10.7902
▁주한	-10.7903
시까지	-10.7904
하다가	-10.7905
▁말할	-10.7905
체계	-10.7907
▁기록해	-10.7907
▁엔	-10.7908
▁몰	-10.7915
▁이용하	-10.7918
▁연령	-10.7918
군의	-10.7919
▁한발	-10.7927
2013	-10.793
▁취지로	-10.7932
▁안돼	-10.7937
▁부각	-10.7941
▁흐름	-10.7942
사로	-10.7943
▁나를	-10.7944
er	-10.7945
경기에	-10.7947
▁끌어	-10.7949
▁빌려	-10.795
▁호흡	-10.795
▁먹고	-10.7954
▁박수	-10.7955
▁언론에	-10.7956
▁서해	-10.7956
▁추격	-10.7958
▁게다	-10.796
▁것이며	-10.7961
▁내부에서	-10.7968
▁근육	-10.7969
텐	-10.797
▁많고	-10.797
▁무르시	-10.797
▁며칠	-10.7972
▁탄탄	-10.7972
al	-10.7973
▁접속	-10.7975
▁1970	-10.7976
▁가리	-10.7978
▁고위급	-10.7982
샤	-10.7982
▁종전	-10.7982
▁마련해	-10.7983
▁같았다	-10.7984
빅	-10.7985
▁때문이었다	-10.7986
▁연루	-10.7987
▁삼성물산	-10.7987
꿈	-10.7988
유럽	-10.7988
주일	-10.7988
지지	-10.799
▁다큐멘터리	-10.7991
▁원장이	-10.7991
▁조사할	-10.7992
▁소프트웨어	-10.7993
▁해병대	-10.7994
▁간단	-10.7999
▁이름이	-10.7999
▁보이	-10.8003
▁고양시	-10.8003
▁금융회사	-10.8007
▁한동안	-10.8007
▁간부들	-10.801
▁증가세	-10.8012
▁무효	-10.8019
▁CNN	-10.802
▁당론	-10.802
파크	-10.8021
▁허리	-10.8022
▁검사장	-10.8023
▁대치	-10.8025
▁전파	-10.8025
잇단	-10.8029
보고서	-10.8032
▁달하는	-10.8032
헌법	-10.8033
장애인	-10.8036
%)	-10.8038
▁브	-10.8038
방식	-10.8038
▁활	-10.8039
▁작용	-10.8039
▁적절한	-10.8045
▁학생들에게	-10.8046
▁협약	-10.8049
49	-10.8049
▁만족	-10.805
▁포장	-10.8056
▁위장	-10.8057
심에서	-10.8061
계의	-10.8062
▁분들	-10.8069
▁조회	-10.807
▁정책에	-10.8073
▁간호사	-10.8074
08	-10.8075
▁협동조합	-10.8079
만여명	-10.8079
팀장	-10.808
▁인쇄	-10.8081
일치	-10.8082
▁결승에서	-10.8085
▁이병	-10.8085
.”“	-10.8087
▁때와	-10.8094
놓고	-10.8094
▁일본에	-10.81
▁실내	-10.8104
▁징계를	-10.8104
▁고수	-10.8104
▁바꾼	-10.8105
▁빼고	-10.8114
▁250	-10.8119
▁이름으로	-10.812
▁몸에	-10.8123
▁느껴	-10.8128
▁눈이	-10.8129
보자	-10.813
▁늘리고	-10.8133
▁맨유	-10.8135
▁주체	-10.8139
▁수질	-10.8141
▁순방	-10.8141
▁공조	-10.8143
▁달한다	-10.8143
▁먼	-10.8145
▁농성	-10.8146
▁빚을	-10.8151
H	-10.8156
▁열기	-10.8159
▁지연	-10.8163
릭	-10.8165
되었다	-10.8165
▁확정된	-10.8166
▁뒤진	-10.8166
大	-10.817
▁미얀마	-10.817
▁유나이티드	-10.817
됐는지	-10.817
가습기	-10.8171
▁지배구조	-10.8171
▁쏟아져	-10.8171
▁압수	-10.8172
▁좌우	-10.8173
▁수렴	-10.8173
▁국악	-10.8175
▁없도록	-10.8175
▁앞장서	-10.8175
하느냐	-10.8175
▁국내에	-10.8175
▁리더	-10.8176
▁지수	-10.8177
▁동결	-10.8177
▁기류	-10.8177
네요	-10.8177
▁떠오르	-10.8178
▁체육	-10.8179
▁이마트	-10.8181
▁사후	-10.8181
▁남겼다	-10.8181
▁잠실	-10.8181
밥	-10.8182
▁직무	-10.8183
▁증가율	-10.8185
▁불가피하다	-10.8185
▁검	-10.8189
▁선장	-10.8189
▁잡스	-10.8191
▁핀란드	-10.8191
하였다	-10.8191
▁해결할	-10.8192
▁한수원	-10.8192
▁공안	-10.8192
▁정통	-10.8194
▁열리고	-10.8195
▁넘치	-10.8195
▁뉴질랜드	-10.8195
▁유동성	-10.8195
▁이슬람국가	-10.8196
▁가문	-10.8198
▁충격을	-10.8199
▁수정안	-10.82
▁현재까지	-10.82
▁전망도	-10.82
▁조언했다	-10.8204
▁낮추	-10.8205
소송	-10.8206
▁괴	-10.8206
조정	-10.8209
상황	-10.8213
▁분열	-10.8214
▁KCC	-10.8218
▁심해	-10.8219
▁미국에	-10.822
▁숲	-10.8221
▁해결을	-10.8222
▁인정한	-10.8223
▁중산층	-10.8225
▁불만이	-10.8227
▁학부모들	-10.823
▁경찰청장	-10.8232
91	-10.8233
45	-10.8234
▁파워	-10.8235
▁알려지	-10.8236
활	-10.8236
▁도박	-10.8238
세가	-10.824
▁약속했다	-10.8243
닝	-10.8243
▁지침	-10.8244
▁머물	-10.8245
▁기여	-10.8246
▁LH	-10.8248
▁패스	-10.8252
▁정의	-10.8256
▁정권이	-10.8261
특별한	-10.8263
▁국제적	-10.8265
금리	-10.8267
▁내놓지	-10.8269
▁싼	-10.827
▁예상했다	-10.8275
▁그려	-10.8277
▁개인의	-10.8282
▁편의	-10.8286
물질	-10.8287
▁옥	-10.829
▁여부에	-10.829
▁등장	-10.829
▁주도한	-10.8294
▁막는	-10.8297
▁파트너	-10.8303
과정	-10.8311
▁반전	-10.8311
장과	-10.8314
▁생기	-10.8314
▁한두	-10.8315
법원	-10.832
기기	-10.8321
되며	-10.8322
▁조합원	-10.8323
▁“4	-10.8324
제주	-10.8326
▁감안	-10.8327
작전	-10.8328
▁말에	-10.833
시간이	-10.8336
▁바뀐	-10.8337
▁가사	-10.8337
▁강요	-10.8339
▁물리	-10.8341
ing	-10.8343
부가	-10.8345
▁군인	-10.835
위가	-10.8352
▁건너	-10.8355
▁굴	-10.8357
▁주장한	-10.8361
▁0.2	-10.8362
▁옆에	-10.8363
▁판단한	-10.8364
꾼	-10.8365
▁필수	-10.8365
억원으로	-10.8367
이었고	-10.8372
▁나서고	-10.8373
톤	-10.8374
▁묶어	-10.8374
▁시나리오	-10.8374
▁플랫폼	-10.8374
安	-10.8374
▁안전보장이사회	-10.8375
▁우크라이나	-10.8375
▁앞당겨	-10.8375
▁숫자	-10.8375
▁떠오른	-10.8375
▁퇴출	-10.8375
▁합쳐	-10.8375
▁포스트시즌	-10.8375
▁나중에	-10.8375
▁출근	-10.8375
▁운항	-10.8375
▁자위권	-10.8375
▁공정거래위원회	-10.8376
▁천막	-10.8377
▁상임위	-10.8378
▁풍경	-10.8378
▁국산	-10.838
▁불렀다	-10.838
▁떠올랐다	-10.8381
▁국군	-10.8382
▁청산	-10.8382
▁상생	-10.8383
▁일일	-10.8383
▁사업으로	-10.8384
수원	-10.8385
▁주거	-10.8389
▁퍼트	-10.839
▁늦게	-10.8391
▁제보	-10.8391
▁해당한다	-10.8391
▁밴쿠버	-10.8392
섬	-10.8392
▁초연	-10.8395
▁낡	-10.8396
▁시속	-10.8396
▁흐르	-10.8396
▁장관과	-10.8396
▁삼성그룹	-10.8398
분간	-10.8399
▁반성	-10.84
▁학대	-10.8402
사람	-10.8403
▁인공지능	-10.8403
▁선체	-10.8405
▁센카쿠	-10.8407
▁하마스	-10.8407
▁강릉	-10.8409
57	-10.8409
▁치고	-10.841
▁새해	-10.841
(28)	-10.841
▁동시	-10.8411
▁자진	-10.8413
59	-10.8416
▁내정자	-10.8417
▁신경전	-10.8417
▁법원에	-10.8418
▁스피드	-10.8419
보안	-10.842
▁한해	-10.8422
▁딱	-10.8426
▁자문	-10.8427
▁중독	-10.8429
▁전세계	-10.8433
여년	-10.8436
▁발생하는	-10.8438
▁이젠	-10.8439
▁사법부	-10.844
▁튀	-10.8441
▁강하다	-10.8442
▁공군	-10.8442
▁지지율이	-10.8442
▁설치된	-10.8443
▁대목이	-10.8445
▁손으로	-10.845
▁원정	-10.8452
▁낮다	-10.8455
분께	-10.846
▁도서관	-10.8463
▁설비	-10.8463
▁가고	-10.8463
▁진행하고	-10.8464
▁간다	-10.8466
▁생긴다	-10.8467
▁알려	-10.8468
틀	-10.8468
▁그래	-10.847
▁안방	-10.8471
▁제약	-10.8474
증권	-10.8474
▁충격	-10.8477
▁해적	-10.8482
▁총리실	-10.8485
▁놓인	-10.8488
▁유가족	-10.8492
▁시달리	-10.8494
▁바꾸는	-10.8495
▁아파트를	-10.8507
▁누리꾼들	-10.8509
▁자원봉사	-10.8511
▁동아시아	-10.8511
▁국회의	-10.8512
▁안전성	-10.8513
▁심사위원	-10.8514
▁촉구하	-10.8514
▁묵	-10.8525
(13	-10.8527
▁담당하	-10.8528
▁운	-10.853
▁생기는	-10.8531
▁채우	-10.8534
어서	-10.8538
▁세트	-10.8539
▁흡연	-10.8539
▁기도	-10.854
상의	-10.854
▁충분한	-10.8542
▁유족들	-10.8543
▁무대에서	-10.8549
▁돌아온	-10.855
▁부문에서	-10.8551
k	-10.8556
▁그렇지	-10.8557
▁공직	-10.8567
▁아니면	-10.8568
▁김민	-10.857
▁뿐이다	-10.8572
루에서	-10.8572
▁색	-10.8572
대기업	-10.8573
트리	-10.8574
▁기술이	-10.8575
▁낮춰	-10.8577
▁중앙은행	-10.858
핑	-10.8582
▁오페라	-10.8583
▁잇따르	-10.8583
▁피아니스트	-10.8583
▁호날두	-10.8583
〉	-10.8583
▁롬니	-10.8583
▁기쁨	-10.8583
▁롯데백화점	-10.8583
▁드러낸	-10.8584
▁3~4	-10.8585
▁1995	-10.8587
▁쌓아	-10.8588
▁화두	-10.8589
▁지지자들	-10.8589
▁경로	-10.859
풀	-10.859
▁빈소	-10.8591
관왕	-10.8592
▁사외이사	-10.8593
▁금고	-10.8594
▁발길	-10.8595
▁닿	-10.8601
자연스럽게	-10.8601
▁금융시장	-10.8601
▁부양	-10.8601
▁후속	-10.8602
징	-10.8604
▁몰랐다	-10.8604
▁여건	-10.8605
▁좋아하는	-10.8606
여만원	-10.8608
▁소수	-10.8611
슈퍼	-10.8612
朴	-10.8612
▁의무화	-10.8613
▁높일	-10.8614
▁요구하며	-10.8615
▁폴크스바겐	-10.8616
사태	-10.8617
▁일방적으로	-10.8617
▁소집	-10.8623
특히	-10.8624
▁행사장	-10.8624
▁와서	-10.8625
▁마주	-10.8627
▁시집	-10.8627
▁주지사	-10.8627
▁기술력	-10.8628
▁마음으로	-10.8629
▁이념	-10.8631
▁전개	-10.8632
총선	-10.8632
▁나가는	-10.8632
▁저조	-10.8634
▁부적절	-10.8635
제품	-10.8637
▁53	-10.8638
▁논의했다	-10.8641
▁국민은행	-10.8642
▁근	-10.8642
▁예산이	-10.8643
규제	-10.8645
▁미국인	-10.8645
▁해상	-10.8647
▁응답자	-10.8649
원전	-10.8653
▁행사에	-10.8654
하니	-10.8657
만명이	-10.866
▁CCTV	-10.8663
▁진행한다	-10.8665
▁75	-10.8667
레이	-10.8668
▁이주	-10.8671
▁이어가	-10.8673
▁유지하고	-10.8682
▁보여주고	-10.8683
▁들어간다	-10.8684
▁백인	-10.8686
▁정씨	-10.8687
▁이어가고	-10.8688
시킨다	-10.8689
지방	-10.8689
이트	-10.8691
▁나면	-10.8691
전국	-10.8692
▁하게	-10.8695
▁방치	-10.8699
▁넘지	-10.8699
▁덕	-10.8701
웨이	-10.8701
▁개인전	-10.8704
▁씨에게	-10.8706
▁김현	-10.8707
▁분양가	-10.8713
▁따르	-10.8716
▁선수들에게	-10.8717
들이다	-10.8717
천명	-10.8718
▁받았고	-10.8721
▁보일	-10.8722
▁내전	-10.8725
▁비전	-10.8729
▁물어	-10.873
▁63	-10.8732
▁판결했다	-10.8733
됐으나	-10.8734
▁이동통신	-10.8735
▁작업에	-10.8736
▁쥐	-10.8736
▁협회	-10.8741
▁CEO	-10.8742
▁신체	-10.8743
96	-10.8753
▁혁명	-10.8757
▁AP	-10.8759
건의	-10.8761
▁간담회	-10.8767
▁최순실	-10.8769
▁기준이	-10.8771
▁결정에	-10.8772
36	-10.8776
▁역사적	-10.8781
▁이곳에서	-10.8781
▁서부	-10.8785
맥	-10.8787
▁의대	-10.879
▁규탄	-10.8791
▁섭취	-10.8792
쩍	-10.8794
멸	-10.8794
▁더불어	-10.8795
▁블랙	-10.8795
▁떨어질	-10.8796
▁손학규	-10.8796
▁않겠느냐	-10.8796
▁폭넓	-10.8796
▁이듬해	-10.8796
▁외무성	-10.8796
▁무너지	-10.8796
▁요리	-10.8796
▁홈플러스	-10.8796
▁해설위원	-10.8796
▁벨기에	-10.8796
▁아울러	-10.8796
▁급락	-10.8797
▁득점왕	-10.8797
▁예비역	-10.8798
▁공동대표	-10.88
▁게이트	-10.8802
▁천연	-10.8803
▁출자	-10.8804
▁보류	-10.8804
▁후유증	-10.8806
▁예약	-10.8806
▁맺었다	-10.8806
압	-10.8807
▁지켰다	-10.8808
화가	-10.881
▁끝났다	-10.8813
▁140	-10.8814
▁물러나	-10.8814
▁조사에	-10.8815
▁제일	-10.8816
▁대사는	-10.8816
사단	-10.8816
따	-10.8817
▁입었다	-10.8819
▁불이	-10.882
42	-10.882
휘	-10.8821
▁발견됐다	-10.8823
▁내리는	-10.8827
▁것인가	-10.8829
▁해석이	-10.8829
이익	-10.883
투쟁	-10.883
빌	-10.883
칼	-10.8831
처음	-10.8834
그런	-10.8834
▁감각	-10.8837
▁로스쿨	-10.8838
루타	-10.8839
▁만들어야	-10.884
머리	-10.8842
▁회복세	-10.8846
▁두루	-10.8848
▁돼야	-10.8851
▁동향	-10.8852
▁주의	-10.8852
~2	-10.8853
▁합격자	-10.8855
천만원	-10.8857
▁아시아경기	-10.8859
자원	-10.8861
▁초부터	-10.8863
▁부장판사	-10.8866
▁누적	-10.8866
▁전술	-10.8871
▁인식이	-10.8872
▁수준이	-10.8874
▁인정하지	-10.8876
▁성실	-10.8877
▁유럽의	-10.8878
▁발표된	-10.888
실장	-10.8884
▁많았	-10.8884
▁추정되는	-10.8891
▁가입한	-10.8893
▁경향이	-10.8894
▁이종	-10.8895
▁소득이	-10.8898
얼	-10.8899
시경	-10.8902
▁영장	-10.8905
▁측에	-10.8909
▁공고	-10.8914
▁확인해	-10.8917
야마	-10.8918
▁이들에게	-10.8924
자본	-10.8927
념	-10.8927
남북	-10.893
▁크고	-10.893
▁집계	-10.8932
▁처분을	-10.8932
▁개발해	-10.8933
▁전문성	-10.894
▁집중적	-10.8944
▁본부장	-10.8948
▁투자자들	-10.895
▁의존	-10.8952
▁말부터	-10.8952
▁대목	-10.8953
관은	-10.8953
r	-10.8956
당국	-10.8956
▁결정하는	-10.8967
84	-10.8973
신고	-10.8976
92	-10.8983
▁원인으로	-10.8985
▁문제의	-10.8991
픈	-10.9006
▁말씀	-10.901
▁붙여	-10.9013
▁프리미어리그	-10.9013
▁베를린	-10.9013
▁아픔	-10.9013
▁소극적	-10.9013
▁시카고	-10.9013
억여원	-10.9013
▁열흘	-10.9013
(39)	-10.9013
61	-10.9013
▁국방위원장	-10.9014
▁욕설	-10.9014
▁김일성	-10.9015
▁공습	-10.9017
룰	-10.9018
명씩	-10.9019
▁위안화	-10.902
▁명절	-10.902
오픈	-10.9021
행동	-10.9021
▁구성해	-10.9022
51	-10.9023
▁SNS	-10.9024
▁넘겼다	-10.9024
▁여파	-10.9025
▁고려하면	-10.9027
▁전경련	-10.9027
▁그러자	-10.9028
▁해외에서	-10.9029
▁애니메이션	-10.9031
▁과일	-10.9032
▁아니라는	-10.9032
(48)	-10.9034
▁마크롱	-10.9036
▁위주로	-10.9037
▁항소	-10.9038
탑	-10.9039
▁신흥국	-10.9039
▁약간	-10.9039
▁상위권	-10.9039
작업	-10.9039
▁추억	-10.9039
▁흙	-10.904
▁그쳐	-10.904
▁전망치	-10.904
▁외상	-10.9042
▁크리스마스	-10.9044
▁제임스	-10.9044
▁탄압	-10.9044
▁재무	-10.9046
▁즉	-10.9046
▁찾아내	-10.9046
었	-10.9046
▁긍정적인	-10.9047
▁이혼	-10.9047
월드컵	-10.9049
끝	-10.9049
정당	-10.9049
▁사업비	-10.905
▁원자력	-10.9051
▁여론이	-10.9051
▁동남아	-10.9052
포럼	-10.9053
김정은	-10.9053
▁스마트	-10.9053
▁무상	-10.9054
▁파면	-10.9054
▁데려	-10.9056
▁선택한	-10.9057
▁김종인	-10.9059
▁인정하고	-10.906
▁수차례	-10.906
▁정권교체	-10.906
▁민정수석	-10.9061
▁정성	-10.9061
▁권유	-10.9061
▁1992	-10.9065
▁전시장	-10.9066
▁적정	-10.9067
▁참고	-10.9068
▁좌	-10.9069
▁약화	-10.907
▁후보에게	-10.9076
▁바이오	-10.9077
41	-10.9078
▁통치	-10.908
▁진정성	-10.908
▁김동	-10.9081
▁남한	-10.9085
▁블루	-10.9086
자산	-10.9086
▁교사들	-10.9089
▁능	-10.909
▁증명	-10.9091
▁점은	-10.9093
▁낙	-10.9094
최고	-10.9097
▁SBS	-10.9097
▁재심	-10.9103
▁설득	-10.9103
비서	-10.9107
▁난다	-10.9108
▁서면	-10.9113
▁중진	-10.9116
▁세우고	-10.9118
2012	-10.912
모임	-10.9123
학회	-10.9124
▁드는	-10.9125
인들의	-10.9125
▁넘어가	-10.9128
코스	-10.9132
▁모르는	-10.9134
행정	-10.9135
▁면적	-10.9135
▁중복	-10.9136
58	-10.9141
▁챙기	-10.9145
▁진출에	-10.9146
▁가르치	-10.9152
▁한창	-10.9153
▁원대	-10.9156
▁KB	-10.916
▁선생님	-10.9165
혁명	-10.9168
600	-10.9171
▁휴	-10.9173
▁데리	-10.9176
▁종이	-10.9178
종합	-10.918
▁남성이	-10.918
▁만기	-10.9187
하듯	-10.919
집회	-10.9191
▁후임	-10.9194
▁만났	-10.9198
▁이민	-10.9198
분야	-10.9199
이클	-10.9201
▁개선을	-10.9202
▁관찰	-10.9203
▁여학생	-10.9204
▁시안	-10.9206
▁친구들	-10.9213
▁서울에서	-10.9215
▁감독과	-10.9216
▁줄이고	-10.9218
혈	-10.922
▁대답	-10.922
▁정상에	-10.922
▁들어온	-10.9223
▁반영된	-10.9224
해줄	-10.9227
촉	-10.9227
▁단기	-10.9229
▁그중	-10.9229
닐	-10.923
▁부작용	-10.9231
▁뒷받침	-10.9231
물을	-10.9231
▁있었	-10.9232
▁130	-10.9234
▁수천	-10.9235
▁과징금	-10.9235
▁나타날	-10.9235
▁무렵	-10.9235
▁정책위의장	-10.9235
▁힐러리	-10.9235
▁느낄	-10.9235
▁색깔	-10.9235
▁신용카드	-10.9235
잖아요	-10.9236
▁생각했다	-10.9236
▁모양새	-10.9237
▁국채	-10.9237
▁불거진	-10.9238
▁계획이	-10.924
▁발달	-10.9242
▁하원	-10.9242
▁가결	-10.9243
▁캘리포니아	-10.9244
▁교육과정	-10.9246
▁리모델링	-10.9246
▁알레르기	-10.9246
답	-10.9247
▁목동	-10.9247
대사	-10.9248
▁‘3	-10.9249
일까	-10.925
▁거주	-10.9251
사에서	-10.9254
▁록	-10.9255
▁입양	-10.9255
▁주소	-10.9258
▁성추행	-10.9258
▁솔직	-10.9259
▁느낀다	-10.926
전화	-10.926
푸	-10.926
▁지원에	-10.9262
납	-10.9263
▁복합	-10.9264
▁탈레반	-10.9267
▁고유	-10.9268
▁측정	-10.9271
▁나경원	-10.9271
정신	-10.9273
▁꺼	-10.9275
▁민주노총	-10.9275
▁곳곳에서	-10.9276
인터넷	-10.9278
배로	-10.9278
▁전무	-10.9278
▁망	-10.9281
▁청장	-10.9283
영국	-10.9283
▁파산	-10.9284
▁모래	-10.9284
▁회계	-10.9284
공격	-10.9285
▁학	-10.9286
디자인	-10.9286
사업을	-10.929
▁전제로	-10.9291
▁교실	-10.9293
▁기대감	-10.9294
협상	-10.9295
공천	-10.9296
▁궁	-10.9298
▁출산	-10.9298
회초	-10.9301
▁MVP	-10.9304
▁만인	-10.9304
▁위성	-10.9306
▁사람들에게	-10.9307
차장	-10.9307
▁이른	-10.9308
▁미래부	-10.9311
일부	-10.9317
▁결정한	-10.9319
▁집단적	-10.9325
▁시대에	-10.9326
▁알지	-10.9326
회전	-10.9329
▁부탁	-10.933
▁마크	-10.9331
▁전액	-10.9335
▁U	-10.9335
▁대학로	-10.9338
▁당사자	-10.934
책을	-10.9341
일째	-10.9342
여건	-10.9343
계약	-10.9343
▁제동	-10.9354
▁이밖에	-10.9355
▁참석자	-10.9357
▁비서	-10.9359
▁W	-10.9359
▁청사	-10.9362
▁이라크	-10.9364
▁골프장	-10.9365
▁누리	-10.9367
▁서서	-10.9367
장의	-10.9367
▁지원할	-10.9374
▁되도록	-10.9376
▁한국사	-10.9377
▁병원에서	-10.9379
▁110	-10.9381
▁홈경기	-10.9391
▁광복	-10.9393
▁고속철	-10.94
대형	-10.9401
AP	-10.9405
▁작성한	-10.9407
라운드에서	-10.9413
▁항소심	-10.9414
▁대표단	-10.9421
▁유독	-10.9422
▁휘	-10.9422
판매	-10.9423
-4	-10.9424
▁수영	-10.9427
▁자식	-10.9434
▁추진하겠다	-10.9436
▁외교적	-10.9437
▁곳곳에	-10.944
됐는데	-10.9457
▁체	-10.9457
▁지속되	-10.9457
IS	-10.9459
릿	-10.9462
▁미셸	-10.9462
▁종업원	-10.9462
▁한마디	-10.9463
▁메뉴	-10.9463
투자증권	-10.9463
▁좌절	-10.9463
해외	-10.9464
▁조선시대	-10.9464
▁관절	-10.9465
▁채취	-10.9465
▁준설	-10.9466
▁석방	-10.9466
▁종종	-10.9467
천억원	-10.9467
▁찾고	-10.9468
▁성관계	-10.9468
▁1988	-10.9468
▁집필	-10.9468
▁지원한다	-10.9469
▁이내에	-10.9469
▁회수	-10.9471
▁속속	-10.9471
▁줄줄	-10.9473
▁용어	-10.9473
▁성균관대	-10.9474
?"	-10.9477
▁태스크포스	-10.9478
▁결선	-10.9478
▁서구	-10.9479
▁영구	-10.9479
률이	-10.9479
▁표심	-10.9483
▁인적	-10.9484
▁조카	-10.9484
(33)	-10.9484
▁던진	-10.9486
다운	-10.9486
▁공식적으로	-10.9489
▁회사에	-10.9489
▁재능	-10.949
법에	-10.9492
▁기독교	-10.9495
▁아르헨티나	-10.9495
▁심화	-10.9495
(27)	-10.9495
▁부산시	-10.9495
▁넘겨	-10.9496
과연	-10.9497
▁광저우	-10.9499
▁심한	-10.9499
▁행	-10.95
딸	-10.9503
▁연관	-10.9505
노무현	-10.9505
▁후원금	-10.9505
▁용지	-10.9506
귀	-10.9506
▁농민	-10.9506
봐야	-10.9506
▁재판관	-10.9506
▁정상급	-10.9507
J	-10.9509
독립	-10.9513
▁미뤄	-10.9513
▁처지	-10.9515
▁쓰기	-10.9525
▁매진	-10.9526
▁여당이	-10.953
▁정책이	-10.9533
▁복제	-10.9533
군이	-10.9534
▁하천	-10.9535
▁것입니다	-10.9535
▁인정했다	-10.9536
이미	-10.9538
▁수준인	-10.954
▁후배	-10.9543
▁그럼	-10.9545
▁지역은	-10.9545
▁회담에서	-10.9548
▁갤럭시	-10.955
▁연출가	-10.9553
▁뜻한다	-10.9554
(14	-10.9555
버린	-10.9559
고용	-10.9559
▁출신이	-10.9559
홀에서	-10.956
에게도	-10.9562
▁하나인	-10.9563
▁낙동강	-10.9563
▁발언이	-10.9567
▁고속도로	-10.9568
▁노력이	-10.9569
▁대우	-10.9572
▁선고했다	-10.958
▁고양	-10.9581
▁대회에	-10.9581
▁팀장은	-10.9581
▁약속한	-10.9587
▁여사	-10.9588
▁확인하고	-10.9589
▁공기	-10.9595
▁안경	-10.9595
▁작업이	-10.9608
▁전담	-10.961
▁네트워크	-10.9611
▁인사청문회	-10.9616
▁펼치고	-10.9621
▁질서	-10.9622
▁보내고	-10.9624
에스	-10.9626
▁부르는	-10.9627
▁해달라	-10.9628
▁규정에	-10.9631
(20	-10.9637
▁파장	-10.9645
▁잠정	-10.9651
7%)	-10.9652
▁朴	-10.9662
▁구청장	-10.9665
▁공판	-10.9667
▁높아진	-10.967
▁도착한	-10.9677
▁112	-10.9679
팅	-10.9679
▁뒤로	-10.9681
▁오를	-10.9682
▁키워	-10.9683
작가	-10.9687
.3%)	-10.9688
▁시세	-10.969
렬	-10.9691
▁엘	-10.9692
▁캠퍼스	-10.9693
▁분담	-10.9693
▁선사	-10.9694
▁사격	-10.9695
▁있으니	-10.9695
긋	-10.9695
▁과태료	-10.9695
▁챙겨	-10.9695
▁협박	-10.9695
▁흡수	-10.9695
▁촛불집회	-10.9695
▁숙소	-10.9695
▁명예교수	-10.9695
▁김한길	-10.9695
▁선발투수	-10.9696
▁맞춘	-10.9696
▁도와주	-10.9696
▁검거	-10.9697
▁닦	-10.9697
▁있었는데	-10.9698
▁축하	-10.97
▁챙겼다	-10.97
▁그만두	-10.9701
▁국회법	-10.9701
됨에	-10.9702
▁해석된다	-10.9703
▁환수	-10.9705
▁이르렀다	-10.9705
▁미래창조과학부	-10.9706
▁외모	-10.9706
▁낮아	-10.9709
▁반환	-10.971
▁펼쳤다	-10.9712
▁원료	-10.9713
▁않는다고	-10.9713
▁당직자	-10.9715
▁1800	-10.9716
▁이완구	-10.9716
맹	-10.9716
▁신발	-10.9717
▁문의	-10.9717
▁하더라도	-10.9719
▁갈라	-10.9722
▁장면이	-10.9724
▁日	-10.9724
▁작품이	-10.9726
▁일본과	-10.9726
▁우병우	-10.9728
▁사건으로	-10.9728
▁고인	-10.973
▁갖는다	-10.973
▁통진당	-10.9732
시장에서	-10.9734
▁친분	-10.9734
▁국제사회	-10.9734
(21)	-10.9738
▁젊은이들	-10.9739
▁반응이	-10.9739
▁금융위원회	-10.974
▁내릴	-10.974
▁춘천	-10.9741
여행	-10.9741
▁성공적	-10.9742
▁상승률	-10.9743
▁털	-10.9743
▁정착	-10.9743
▁기업은	-10.9744
▁주문했다	-10.9744
미술	-10.9747
▁핵심인	-10.9748
▁하위	-10.975
자동차	-10.975
▁양측	-10.975
천안함	-10.9751
▁관심사	-10.9754
▁논술	-10.9755
▁벤처	-10.9757
▁선거에	-10.9758
▁공개하지	-10.9758
▁유전	-10.9762
▁중학생	-10.9763
▁선거구	-10.9764
미래	-10.9764
▁흔적	-10.9767
강남	-10.9767
▁신청자	-10.9771
신당	-10.9772
▁몰라	-10.9772
▁배구	-10.9774
▁끝나고	-10.9776
▁조선일보	-10.9781
▁제한하는	-10.9783
▁CIA	-10.9785
▁편이다	-10.9789
하려다	-10.979
▁7%	-10.9794
▁심리적	-10.9796
▁것이라며	-10.98
▁작가들	-10.9802
▁밝히고	-10.9806
▁정교	-10.9809
▁참가한	-10.981
승점	-10.9811
▁오르	-10.9812
▁중점	-10.9813
론을	-10.9816
자료를	-10.9818
해요	-10.9819
▁정해	-10.9822
▁LA	-10.9825
▁모인	-10.9826
▁요인	-10.9826
▁적게	-10.9828
▁여론조사에서	-10.9834
▁공급하는	-10.9836
▁의원에게	-10.9838
▁정세	-10.984
▁김아무개	-10.9841
오는	-10.9841
▁삼고	-10.9843
로스	-10.9846
준다	-10.9848
▁재고	-10.9849
▁늘어난다	-10.985
있	-10.9851
났다	-10.9855
▁김정	-10.9866
▁반대하고	-10.9866
▁분야에	-10.9866
▁신문은	-10.9867
▁과제로	-10.9868
▁브리핑	-10.987
▁확산되	-10.9871
▁최장	-10.9871
▁영화는	-10.9873
400	-10.9875
700	-10.9875
▁요청에	-10.9878
2(	-10.9878
▁고르	-10.9879
▁8000	-10.9879
▁만루	-10.9883
▁소외	-10.9884
▁동반	-10.9887
▁해주	-10.9887
▁경호	-10.9889
▁시작한다	-10.9889
▁급증	-10.9892
▁숨지	-10.9892
▁군수	-10.9893
▁기한	-10.9895
▁사직	-10.9896
▁요구해	-10.9896
규정	-10.9898
▁프로축구	-10.9901
▁청소	-10.9903
▁많지	-10.9908
▁건설사	-10.9909
▁중국에서	-10.991
상태	-10.9912
▁지적에	-10.9912
케이	-10.9915
▁US	-10.9915
장애	-10.9917
▁슬	-10.9918
버리	-10.992
▁맨	-10.9921
▁시술	-10.9928
▁참모	-10.9929
변호사	-10.993
▁약점	-10.993
딘	-10.9932
▁나오면	-10.9933
反	-10.9933
▁낳은	-10.9933
▁내비쳤다	-10.9933
▁대검찰청	-10.9933
▁맹활약	-10.9933
▁밝힐	-10.9933
▁아나운서	-10.9933
國	-10.9933
▁최연소	-10.9933
▁이승엽	-10.9933
▁만만치	-10.9933
▁자위대	-10.9933
쿼터	-10.9933
▁즐길	-10.9933
▁타이틀	-10.9934
▁긴밀	-10.9934
▁터뜨리	-10.9934
▁호투	-10.9935
▁석탄	-10.9935
▁헌신	-10.9936
▁차세대	-10.9936
분을	-10.9936
정치적	-10.9937
▁열악	-10.9937
▁끝날	-10.9937
▁존경	-10.994
▁지냈다	-10.9942
▁장거리	-10.9944
▁정몽준	-10.9945
re	-10.9945
▁탐지	-10.9946
▁배포	-10.9947
▁88	-10.9948
▁이화여대	-10.9949
▁추기경	-10.9949
▁바꿔야	-10.995
▁통장	-10.9951
▁적었다	-10.9951
▁연말까지	-10.9951
▁인공위성	-10.9953
▁걸었다	-10.9954
▁빚어	-10.9955
▁위법	-10.9957
▁지난해부터	-10.9961
PC	-10.9962
만개	-10.9963
▁단호	-10.9964
▁상관없이	-10.9965
▁내기	-10.9969
▁추구하는	-10.9971
▁거품	-10.9971
▁내리	-10.9971
▁진행되는	-10.9972
▁기름	-10.9973
▁고지	-10.9974
(30)	-10.9974
만이다	-10.9976
▁그라운드	-10.9977
헤	-10.9985
▁공감대	-10.9986
▁재협상	-10.9986
들로	-10.9987
폰	-10.9987
▁붐	-10.9989
▁선보이	-10.9989
▁과잉	-10.999
든지	-10.999
▁관점	-10.999
▁회	-10.9991
맞	-10.9991
CEO	-10.9993
▁상권	-10.9994
결정	-10.9994
프랑스	-10.9995
펀드	-10.9995
어떤	-10.9995
▁것이어서	-10.9996
바람	-10.9996
질환	-10.9998
▁연구팀	-11
▁커피	-11.0001
사장	-11.0002
▁시청자	-11.0009
▁유지하면서	-11.0014
▁알려주	-11.0015
▁방안에	-11.0016
▁도입된	-11.0017
두산	-11.0019
▁설문조사	-11.002
▁창원	-11.0022
▁체계적	-11.0025
▁얻기	-11.0025
당했다	-11.0035
▁곳을	-11.0035
▁떼	-11.0037
되거나	-11.0043
▁공정성	-11.0043
▁채무	-11.0043
되어야	-11.0046
▁최신	-11.0046
▁군대	-11.005
▁이후에	-11.0054
억원이	-11.0054
달라고	-11.0055
스크	-11.0055
야말	-11.0055
▁좌파	-11.0055
▁문제다	-11.0056
▁촛불	-11.0079
▁보조	-11.0086
노인	-11.0089
일반	-11.0095
어로	-11.0096
▁달라는	-11.0097
▁연설에서	-11.0098
스키	-11.0102
▁칸	-11.0111
▁대표로	-11.0115
▁넘는다	-11.0117
▁은행들	-11.0118
▁불가능	-11.0121
▁사회에	-11.0124
▁절차에	-11.013
▁GS	-11.013
▁승리했다	-11.0135
▁회장에게	-11.0135
or	-11.0137
▁듣는	-11.0139
킨	-11.0144
▁때문으로	-11.0146
▁마포구	-11.0148
▁레이	-11.0149
하다고	-11.0154
▁청주	-11.0154
▁대피	-11.0156
▁사령탑	-11.0157
▁과정이	-11.0159
▁한다면	-11.0172
▁시청자들	-11.0175
렁	-11.0177
▁갖췄다	-11.0177
▁뭔가	-11.0177
▁아쉬움	-11.0177
▁양극화	-11.0177
▁읽는	-11.0177
▁자존심	-11.0177
꽁	-11.0177
▁공청회	-11.0177
▁평범한	-11.0177
▁단말기	-11.0177
▁심지어	-11.0177
▁낫다	-11.0177
▁건넨	-11.0178
▁윤석민	-11.0178
▁몰래	-11.0178
▁넘긴	-11.0179
▁화백	-11.0181
▁야후	-11.0181
▁싶어요	-11.0181
▁집계됐다	-11.0182
2010	-11.0182
▁매립	-11.0183
▁장착	-11.0184
▁태국	-11.0186
▁분당	-11.0188
▁나오자	-11.019
▁레바논	-11.0193
▁베테랑	-11.0193
▁전기차	-11.0195
스와	-11.0196
▁우울증	-11.0197
▁삼성화재	-11.0199
▁경제에	-11.0199
▁독주	-11.0199
▁선정됐다	-11.02
▁미술관	-11.0201
만원으로	-11.0201
▁책임이	-11.0203
▁부천	-11.0204
▁기와	-11.0204
▁솔로	-11.0205
▁서양	-11.0205
육	-11.0205
▁지주회사	-11.0206
▁준수	-11.0207
▁있어요	-11.0209
▁피우	-11.021
▁“3	-11.021
▁경우에	-11.0211
▁연석회의	-11.0212
▁마침	-11.0214
▁오자와	-11.0216
▁국군포로	-11.0216
▁국가주석	-11.0216
▁실태조사	-11.0217
.2%)	-11.0222
▁지장	-11.0223
▁신세계	-11.0224
▁유보	-11.0224
▁내정	-11.0225
접	-11.0225
▁더해	-11.0226
느	-11.0226
▁산업은행	-11.0228
▁개관	-11.0229
▁완주	-11.0229
▁무슬림	-11.023
▁재즈	-11.0231
▁공동성명	-11.0231
▁중단을	-11.0231
▁상상	-11.0233
▁보며	-11.0234
기자들에게	-11.0236
▁내건	-11.0236
(<	-11.0237
흐	-11.0237
▁이관	-11.0238
▁이뤄지는	-11.0238
맛	-11.0239
▁전임	-11.0241
묵	-11.0241
▁발언에	-11.0241
▁L	-11.0241
▁높고	-11.0242
칸	-11.0242
▁명백	-11.0244
대한민국	-11.0244
또	-11.0245
▁냉	-11.0249
▁배경에	-11.0249
▁공연장	-11.0249
▁날이	-11.0249
▁“2	-11.025
▁공유하	-11.0251
▁창조	-11.0252
극장	-11.0254
▁쏟아	-11.0255
▁강조한다	-11.0255
▁진상	-11.0257
▁가계부채	-11.0258
▁교감	-11.0258
▁위에서	-11.0258
▁증인으로	-11.0261
▁박종	-11.0267
▁김진	-11.0268
▁보건	-11.0268
▁부분에	-11.0269
▁탈세	-11.0271
▁즐기	-11.0272
▁이뤄	-11.0273
▁지키는	-11.0283
▁이아무개	-11.0285
▁건조	-11.0288
▁엔씨	-11.0288
▁척	-11.0289
▁제공한다	-11.0289
▁러시아와	-11.0292
▁거부했다	-11.0297
▁기울	-11.0297
▁시작된다	-11.0299
대장	-11.0301
00	-11.0307
▁명단에	-11.031
▁56	-11.0319
▁동양	-11.032
용으로	-11.032
900	-11.0321
▁분석해	-11.0325
외고	-11.0326
▁시작하는	-11.0328
▁내신	-11.0332
▁반대한다	-11.0332
▁공연이	-11.0333
만원에	-11.0333
▁제공한	-11.0338
▁인천시	-11.0339
▁해왔다	-11.0339
시키기	-11.0343
▁판매가	-11.0345
▁FC	-11.035
인치	-11.0351
~9	-11.0352
▁벗	-11.0352
▁성사	-11.0352
▁거론하	-11.0353
▁퍼	-11.0354
▁취급	-11.0359
이하	-11.0365
▁고객이	-11.0365
쟁	-11.0371
명도	-11.0371
▁생계	-11.0373
▁겨울올림픽	-11.0374
▁도약	-11.0374
▁과다	-11.0378
▁가톨릭	-11.0378
결과	-11.0379
▁나섰	-11.0385
셨	-11.0387
!”	-11.0387
▁주주	-11.039
▁이어지	-11.0391
▁무시	-11.0398
▁뜻하는	-11.0402
▁항공사	-11.0403
자리	-11.0405
▁진통	-11.0409
에프	-11.0411
었는데	-11.0412
▁4%	-11.0414
내는	-11.0416
틴	-11.0418
▁조화	-11.0421
▁비대위	-11.0421
人	-11.0427
▁여섯	-11.0427
쩔	-11.0427
▁서청원	-11.0427
▁깔려	-11.0427
▁획득	-11.0427
▁흘리	-11.0427
▁받아들일	-11.0427
▁몇몇	-11.0427
▁일어날	-11.0427
▁양동근	-11.0428
▁불필요	-11.0428
다음	-11.0428
▁최우선	-11.0428
▁박인비	-11.0428
▁논평	-11.0428
▁과학기술	-11.0428
▁땅값	-11.0429
▁태어나	-11.0429
▁의류	-11.0429
▁다큐	-11.0429
▁야외	-11.0429
▁추측	-11.0429
▁발레	-11.043
(32)	-11.043
▁신제품	-11.043
▁악재	-11.0431
▁고쳐	-11.0431
▁겪었다	-11.0432
▁적혀	-11.0432
▁경제위기	-11.0432
▁받았지만	-11.0433
▁질타	-11.0434
▁페루	-11.0434
▁국감	-11.0434
▁고액	-11.0435
▁창문	-11.0437
거운	-11.0437
봉사	-11.0438
▁증상이	-11.0438
▁김현수	-11.0439
▁별명	-11.0439
▁국가기록원	-11.0439
▁배후	-11.0439
▁그에게	-11.044
(26·	-11.044
▁편안	-11.0441
▁로마	-11.0441
혔다	-11.0443
▁일본군	-11.0444
▁법조계	-11.0445
▁그걸	-11.0446
시께	-11.0447
▁은행권	-11.0447
▁방북	-11.045
▁북미	-11.0452
반대	-11.0452
(36)	-11.0453
▁보강	-11.0456
▁재계	-11.0458
▁가해자	-11.0459
▁기용	-11.0461
▁뒷	-11.0461
연패에	-11.0462
▁동료들	-11.0464
▁관해	-11.0464
▁쇼핑몰	-11.0467
수비	-11.0469
▁후배들	-11.047
▁녹색	-11.0472
▁묘	-11.0473
▁작동	-11.0475
▁불가능한	-11.0476
▁스크린	-11.0477
▁반발이	-11.0478
치료	-11.0478
▁선고받	-11.0481
▁국정원은	-11.0485
▁일치	-11.0486
▁사인	-11.0487
▁살아남	-11.0487
▁음식점	-11.0488
▁기소했다	-11.049
해지고	-11.0492
보니	-11.0492
해져	-11.0496
▁확인된	-11.0496
▁운명	-11.0496
책임	-11.0496
콘	-11.0498
▁정도였다	-11.0498
겨울	-11.0498
▁게재	-11.0499
▁전세	-11.05
한나라당	-11.0501
오바마	-11.0501
학습	-11.0503
▁확정했다	-11.0504
폭력	-11.0508
▁고가	-11.0509
▁구분	-11.0509
권력	-11.051
▁백제	-11.0511
▁밀리	-11.0512
년생	-11.0514
▁문화재	-11.052
▁세제	-11.052
▁이하로	-11.0521
토론	-11.0526
▁연내	-11.0527
▁본질	-11.0527
▁사고로	-11.0529
는데도	-11.0531
▁공동체	-11.0533
▁시한	-11.0534
▁한류	-11.0534
무기	-11.0537
한화	-11.0539
▁배경으로	-11.0541
▁이어진다	-11.0544
▁OECD	-11.0548
▁PGA	-11.0548
▁지원금	-11.0549
▁이것	-11.055
▁간에	-11.0553
▁수갑	-11.0561
▁안팎에서	-11.0564
▁우승한	-11.0564
▁68	-11.0565
▁문인	-11.0571
▁사정이	-11.0571
부자	-11.0572
▁욕심	-11.0574
▁野	-11.0576
▁태평양	-11.0576
▁경선에서	-11.0579
▁기울이	-11.0581
▁혐의가	-11.0581
대에서	-11.0581
▁끝나	-11.0583
점이	-11.0584
▁주차	-11.0588
▁앙	-11.059
▁인정해	-11.059
아동	-11.0592
끌었다	-11.0599
져야	-11.0601
▁그렇다	-11.0601
▁홈페이지에	-11.0605
▁사용해	-11.0607
해줬다	-11.0609
▁확인되	-11.0609
▁내용에	-11.0614
▁책정	-11.0618
회에	-11.0618
▁PC	-11.062
▁포지션	-11.0627
경선	-11.0627
▁7000	-11.0628
몬	-11.0628
회관에서	-11.0629
▁전해	-11.0634
▁업계에서	-11.0636
▁인정하는	-11.0638
▁자랑	-11.064
▁신청했다	-11.0644
리고	-11.0646
▁책임자	-11.0646
▁지지자	-11.0648
▁모자	-11.0653
▁이룬	-11.0653
규모	-11.0654
▁64	-11.0656
▁주부	-11.0659
▁보육	-11.066
부담	-11.0661
전문가	-11.0662
▁투자하는	-11.0665
▁금강산	-11.0668
▁제안한	-11.0671
셔	-11.0671
으로써	-11.0671
▁격려	-11.0672
▁한국당	-11.0673
▁정규직	-11.0678
▁요구할	-11.0678
▁불펜	-11.0678
an	-11.0679
▁되찾	-11.0679
▁진출한	-11.068
▁상향	-11.0681
▁유연	-11.0682
광고	-11.0682
▁깜짝	-11.0683
▁끄는	-11.0683
▁넓은	-11.0683
▁넣는	-11.0683
▁분향소	-11.0683
▁아르바이트	-11.0683
▁영유권	-11.0683
▁외교통상부	-11.0683
▁읽고	-11.0683
▁떠올리	-11.0683
▁유격수	-11.0683
파운드	-11.0683
▁부주석	-11.0683
▁최경주	-11.0684
(56)	-11.0684
▁대북제재	-11.0684
(47)	-11.0684
▁농촌	-11.0684
▁멀리	-11.0686
▁김경	-11.0688
▁대화록	-11.0689
▁금속	-11.069
보는	-11.069
▁쏟아졌다	-11.069
▁인종	-11.069
▁발령	-11.0693
▁점령	-11.0694
▁예정대로	-11.0695
▁성분	-11.0696
▁땀	-11.0696
▁부임	-11.0696
▁단위	-11.0696
▁신라	-11.0697
▁고생	-11.0698
▁학술	-11.07
▁감동	-11.0704
인천	-11.0705
▁방통위	-11.0705
▁자유계약선수	-11.0705
▁외교관	-11.0707
▁사연	-11.0707
리는	-11.0708
▁달러화	-11.071
▁워크아웃	-11.071
▁장르	-11.071
▁비슷하다	-11.0711
▁팀장	-11.0711
▁참석하는	-11.0712
▁삼성생명	-11.0714
▁면세점	-11.0715
사용	-11.0716
▁내달	-11.0716
▁마찬가지다	-11.0717
(42)	-11.0719
▁용산구	-11.0719
▁쇼	-11.072
▁주연	-11.072
▁포수	-11.072
중공업	-11.0721
▁재검토	-11.0724
▁없음	-11.0724
▁위조	-11.0725
▁마시	-11.0729
▁가기	-11.0731
▁융합	-11.0734
▁밀양	-11.0735
▁중앙대	-11.074
▁판단해	-11.0742
▁북한과	-11.0745
▁유가	-11.0746
▁우세	-11.0747
▁양식	-11.0749
▁ICBM	-11.0754
살이	-11.0754
국의	-11.0754
구를	-11.0756
▁동아일보와	-11.0756
환자	-11.0757
▁전례	-11.0757
▁비서관	-11.0758
▁대륙	-11.0759
▁웨	-11.076
▁V	-11.076
모델	-11.0762
볼넷	-11.0763
▁66	-11.0765
▁정문	-11.0765
드라마	-11.0766
▁의식한	-11.0767
엄마	-11.0767
동맹	-11.077
▁학위	-11.0772
▁않으면서	-11.0772
▁식물	-11.0772
주영	-11.0772
대전	-11.0774
▁총기	-11.0775
▁유예	-11.0777
▁최정	-11.0778
▁농장	-11.078
▁남용	-11.0781
타로	-11.0785
▁고도	-11.0788
▁못했고	-11.0789
▁검토해	-11.0791
98	-11.0792
불법	-11.0797
▁투자가	-11.0798
▁견	-11.0798
▁조용	-11.0799
▁위축	-11.0799
▁줄고	-11.0799
▁언론인	-11.0801
업자	-11.0804
▁절대적	-11.0804
▁파기	-11.0805
▁영등포	-11.081
▁연주자	-11.081
분에	-11.081
▁신고했다	-11.0813
명만	-11.0816
▁선수들과	-11.0817
▁갖추고	-11.0817
▁달아	-11.0821
▁기업과	-11.0822
▁움직이는	-11.0826
▁진술했다	-11.0829
▁슈	-11.0832
▁이력	-11.0835
▁것인데	-11.0837
▁많은데	-11.0838
▁고대	-11.0841
방안	-11.0842
▁NYT	-11.0842
지기	-11.0844
현장	-11.0845
▁지원해	-11.0845
치기	-11.0847
피하기	-11.0851
▁마련된	-11.086
수로	-11.0861
▁컨디션	-11.0864
▁역할이	-11.0869
▁확대하고	-11.087
▁주고받	-11.0873
▁매매	-11.0874
▁의자	-11.0876
FC	-11.0885
라스	-11.0888
▁이곳에	-11.0893
▁부를	-11.0896
비리	-11.09
1989	-11.0903
▁갖는	-11.0905
리지	-11.0906
이피	-11.0906
비율	-11.0909
▁했을	-11.091
롭게	-11.0912
작년	-11.0913
▁소방	-11.0914
마당	-11.0915
▁공익	-11.0925
▁건수	-11.0927
끈다	-11.0928
랜드	-11.0932
▁분명	-11.0936
▁시가	-11.0936
텔	-11.0938
▁동반성장	-11.094
▁자사	-11.0941
▁뜨	-11.0944
▁쓴다	-11.0944
눌	-11.0946
▁겹쳐	-11.0947
▁깔끔	-11.0947
▁민노당	-11.0947
▁붙이	-11.0947
▁아프가니스탄	-11.0947
▁통폐합	-11.0947
▁티베트	-11.0947
▁흉기	-11.0947
▁유재학	-11.0947
▁가볍	-11.0947
▁충실	-11.0947
▁무엇인지	-11.0947
▁있겠느냐	-11.0947
▁대우조선	-11.0947
(51)	-11.0947
▁지검장	-11.0947
부상	-11.0948
▁대다수	-11.0948
▁소홀	-11.0949
▁커져	-11.0949
▁소련	-11.0949
▁의료진	-11.095
▁내일	-11.095
▁실효성	-11.095
69	-11.0951
▁생생	-11.0951
▁승계	-11.0953
▁일방적	-11.0954
▁박주영	-11.0955
▁육상	-11.0956
▁머물렀다	-11.0957
봤다	-11.0958
▁팀에	-11.0959
▁트렌드	-11.0959
▁그만	-11.0961
▁주둔	-11.0962
▁격리	-11.0962
▁걸리는	-11.0963
▁앤	-11.0964
▁재계약	-11.0964
▁하루에	-11.0965
▁최경환	-11.0969
▁고용노동부	-11.0969
▁동계올림픽	-11.0969
▁대입	-11.0971
▁정책의	-11.0971
▁따져	-11.0972
▁당이	-11.0972
▁우유	-11.0973
▁치러진	-11.0973
▁횟수	-11.0974
▁5·18	-11.0974
▁보전	-11.0976
▁주민투표	-11.0976
▁벤처기업	-11.0976
▁올라가	-11.0976
▁우려된다	-11.0976
(35)	-11.0977
▁동작	-11.0977
▁왕실	-11.0977
▁정체	-11.0978
▁주한미군	-11.0979
▁장기적으로	-11.0979
▁것이고	-11.0979
▁미루	-11.098
▁과시	-11.098
▁재개를	-11.0983
▁제작진	-11.0983
어도	-11.0984
면적	-11.0984
▁현실적으로	-11.0984
▁진행됐다	-11.0985
▁강조하고	-11.0989
▁보이며	-11.0992
▁내놓을	-11.0993
▁기득권	-11.0994
▁카드사	-11.0999
▁타협	-11.0999
▁복용	-11.1
▁비즈니스	-11.1004
▁0.1%	-11.1004
▁유산	-11.1005
제도를	-11.1006
▁기록이	-11.1007
▁태양	-11.1007
▁보고서에서	-11.1009
골프	-11.1011
협정	-11.1011
▁유용	-11.1011
▁길거리	-11.1017
▁문자	-11.1018
▁증가하고	-11.102
▁용인시	-11.1022
꾸	-11.1025
▁줄어든다	-11.1026
▁컨설팅	-11.1031
▁동상	-11.1031
러운	-11.1033
옛	-11.1034
베트남	-11.1034
▁인사들이	-11.1038
뉴스	-11.1041
개선	-11.1041
▁쳤다	-11.1042
▁이기	-11.1045
▁경기력	-11.1047
▁마트	-11.1048
▁취업자	-11.1048
▁중앙정부	-11.1049
▁시정	-11.1052
▁사령관	-11.1052
▁갤러리	-11.1054
▁원화	-11.1054
▁초등학생	-11.1057
우스	-11.1057
▁걸리	-11.1057
▁t	-11.1059
▁팀은	-11.1061
▁장점이	-11.1063
▁민주당과	-11.1064
교통	-11.1064
기능	-11.1066
▁산은	-11.1069
제로	-11.107
▁돼지	-11.107
전이	-11.107
▁맞붙	-11.1071
원칙	-11.1071
▁순수	-11.1073
요금	-11.1073
강전	-11.1073
▁바람이	-11.1077
▁증권사	-11.1078
▁시계	-11.1079
▁천장	-11.1079
▁끝나지	-11.1079
▁올랐	-11.108
▁없다며	-11.1081
▁평가전	-11.1082
~3	-11.1083
▁오면	-11.1085
▁57	-11.1085
▁휴식	-11.1089
~20	-11.1089
▁약국	-11.1091
유엔	-11.1092
연금	-11.1098
▁대행	-11.1105
재판	-11.1106
▁심장	-11.1108
주민	-11.1112
위권	-11.1113
공개적으로	-11.1117
▁발간	-11.1121
▁재판장	-11.1122
▁치열	-11.1125
▁치러	-11.1127
▁벌어지고	-11.1127
▁피로	-11.1129
▁토론회에서	-11.1131
▁방송은	-11.1132
▁전쟁이	-11.1132
▁우위	-11.1134
▁160	-11.1141
-5	-11.1142
▁병행	-11.1144
기와	-11.1149
▁수감	-11.115
▁가족을	-11.1151
▁도입한	-11.1152
▁극대화	-11.1154
▁방문했다	-11.1158
실업	-11.1158
▁성격이	-11.1159
▁확대하는	-11.1171
▁과학자	-11.1172
동의	-11.1177
▁장병	-11.1179
▁중재	-11.1182
▁짓는	-11.1182
원에	-11.1182
▁저하	-11.1184
▁92	-11.1189
▁세계적으로	-11.119
▁실적이	-11.1191
▁72	-11.1191
▁손님	-11.1196
연합회	-11.1196
▁포기하	-11.1196
▁불투명	-11.1203
자치	-11.1205
▁콜	-11.1212
▁나흘	-11.1215
컨	-11.1216
法	-11.1217
▁가깝다	-11.1217
▁넘어섰다	-11.1217
▁맺고	-11.1217
▁붙어	-11.1217
▁블라디미르	-11.1217
▁질병관리본부	-11.1217
▁텃밭	-11.1217
戰	-11.1217
▁아랍	-11.1217
黨	-11.1217
▁조별리그	-11.1217
▁실전	-11.1217
▁열쇠	-11.1217
kr	-11.1217
▁대지진	-11.1217
▁인수합병	-11.1217
(43)	-11.1218
▁적잖	-11.1218
▁리스크	-11.1218
▁기상청	-11.1218
▁늘렸다	-11.1218
▁장학금	-11.1218
▁감옥	-11.1219
인승	-11.1219
▁담합	-11.122
▁이해관계	-11.122
▁전성기	-11.1221
▁강화를	-11.1221
▁배상	-11.1222
▁건축물	-11.1222
▁늘릴	-11.1222
▁카탈루냐	-11.1223
▁관영	-11.1225
▁공언	-11.1225
▁사거리	-11.1226
▁일축	-11.1229
▁믿음	-11.123
▁주택담보대출	-11.123
▁결함	-11.123
▁분석된다	-11.1231
▁분산	-11.1233
.6%)	-11.1233
▁송금	-11.1234
▁1950	-11.1235
▁잡아내	-11.1235
▁넘었다	-11.1236
▁좋았다	-11.1236
층에	-11.1236
▁손잡	-11.1238
▁구금	-11.1239
▁백지화	-11.124
▁실정	-11.1242
▁폭격	-11.1242
▁친노	-11.1243
▁장남	-11.1244
▁쌍용차	-11.1245
▁재임	-11.1246
▁김상	-11.1246
정세균	-11.1248
▁쓰레기	-11.1249
▁지나친	-11.1249
▁카다피	-11.125
▁움직임에	-11.125
▁기원	-11.1251
이어	-11.1256
▁실린	-11.1256
▁이성	-11.1257
▁했으며	-11.1257
▁거짓말	-11.1257
▁산정	-11.1258
▁일행	-11.1259
▁월세	-11.1261
▁문화예술	-11.1262
▁남아공	-11.1264
▁입장에서	-11.1264
▁트위터에	-11.1265
▁영광	-11.1265
▁한참	-11.1266
▁농업	-11.1266
이었으나	-11.1267
▁탐사	-11.1267
▁마찬가지로	-11.1268
▁마련하기	-11.1268
영상	-11.1269
▁원인이	-11.1269
▁순환	-11.1269
▁것이냐	-11.1269
▁적립	-11.1271
▁취하	-11.1273
금지	-11.1273
▁기량	-11.1274
▁이겨	-11.1275
▁푸른	-11.1277
▁원리	-11.128
▁집중력	-11.1281
▁유사한	-11.1285
▁터진	-11.1286
▁벗어나지	-11.1289
▁제공하고	-11.1291
▁학계	-11.1294
편을	-11.1295
▁아마	-11.1299
▁되자	-11.1299
▁가족이	-11.1301
▁되겠다	-11.1302
▁기능이	-11.1304
▁올리고	-11.1305
▁당선인의	-11.1308
미사일	-11.1311
▁푼	-11.1311
▁촉진	-11.1311
KB	-11.1312
▁포스트	-11.1312
밤	-11.1312
초등학교	-11.1312
밴드	-11.1312
▁버려	-11.1313
웃음	-11.1314
▁안양	-11.1315
▁일원	-11.1315
▁않기로	-11.1316
▁본부	-11.1317
바이	-11.1318
▁발생해	-11.1318
▁가족들이	-11.1319
▁연비	-11.1321
▁치르는	-11.1327
▁제작한	-11.133
▁적용해	-11.1336
▁보증	-11.1337
▁협력사	-11.1337
방향	-11.1338
▁분할	-11.134
▁속으로	-11.1341
▁노동부	-11.1343
▁채워	-11.1343
번호	-11.1347
▁단서	-11.1347
▁안해	-11.1355
▁일간	-11.1357
사에	-11.137
▁졸업생	-11.1372
사회적	-11.1373
▁뛰고	-11.1374
▁스티븐	-11.1375
일자리	-11.1376
▁주관	-11.1377
▁와인	-11.138
세트	-11.1382
▁검은	-11.1384
▁확보했다	-11.1386
▁교과	-11.1387
영어	-11.139
▁맞춤형	-11.1391
▁느	-11.1392
▁하이	-11.1396
▁똑같이	-11.1399
인데도	-11.14
▁대기업들	-11.1401
▁멈추	-11.1403
▁수사권	-11.1404
우승	-11.1411
▁협상에	-11.1411
▁볼넷	-11.1411
▁유권자들	-11.1412
▁독립성	-11.1413
▁위안	-11.1414
▁모기	-11.1417
미술관	-11.1418
▁실패했다	-11.1422
▁수석이	-11.1426
▁사법	-11.1429
▁H	-11.143
▁통과한	-11.143
▁나타난	-11.1431
▁펼친	-11.1437
▁상의	-11.1439
▁가량	-11.144
▁아들이	-11.1442
▁느낌이	-11.1444
▁월드컵에서	-11.1444
▁경제정책	-11.1448
웠	-11.1451
▁펼쳐진	-11.1452
▁조사해	-11.1453
지로	-11.1456
뒀	-11.1456
81	-11.1461
▁개발했다	-11.1462
▁보여준	-11.1464
▁언론사	-11.1465
▁전반에	-11.1471
리를	-11.1471
▁고사	-11.1472
체육관에서	-11.1475
▁변동	-11.1477
▁녹	-11.1477
▁어른	-11.1481
▁미친	-11.1482
짐	-11.149
▁남겨	-11.149
▁유발	-11.1492
▁가라앉	-11.1495
▁냄새	-11.1495
▁마스터스	-11.1495
▁신동빈	-11.1495
▁아시아나항공	-11.1495
▁않자	-11.1495
▁예술의전당	-11.1495
▁온실가스	-11.1495
▁후폭풍	-11.1495
▁훌쩍	-11.1495
▁(02)	-11.1495
▁바람직하지	-11.1495
▁홍익대	-11.1495
▁냉장고	-11.1495
▁영업정지	-11.1495
▁보이콧	-11.1495
▁눈앞에	-11.1495
▁가자지구	-11.1495
▁용납	-11.1495
(59)	-11.1495
▁롯데마트	-11.1495
▁월평균	-11.1495
▁줄어드는	-11.1496
▁자치단체	-11.1496
▁재정위기	-11.1496
▁엘지전자	-11.1497
(52)	-11.1497
▁역풍	-11.1497
▁상상력	-11.1497
소비	-11.1497
▁돌아왔다	-11.1498
▁사죄	-11.1499
▁여왕	-11.1499
▁경제성장률	-11.15
▁호평	-11.15
▁나눈	-11.15
▁절약	-11.15
▁극심	-11.1501
▁미지수	-11.1501
▁송환	-11.1501
▁쏟아내	-11.1501
▁각막	-11.1501
▁받으며	-11.1504
▁파행	-11.1504
▁시민들이	-11.1504
▁문구	-11.1505
▁청년층	-11.1507
▁미소	-11.1508
▁들어왔다	-11.1508
▁건보료	-11.1508
▁실형	-11.151
▁축구협회	-11.1511
▁박상	-11.1513
▁스코틀랜드	-11.1513
▁활동이	-11.1513
▁중시	-11.1513
▁던졌다	-11.1514
▁반등	-11.1514
▁2019	-11.1515
(38)	-11.1516
▁직구	-11.1517
아내	-11.1518
▁구현	-11.1518
▁위력	-11.1518
▁천주교	-11.1518
▁법무법인	-11.1519
▁도요타	-11.1519
▁"'	-11.1521
▁통과를	-11.1521
(26)	-11.1522
▁67	-11.1522
수단	-11.1523
(22·	-11.1525
▁듯하다	-11.1525
▁자라	-11.1525
▁화장실	-11.1526
▁관계없이	-11.1527
▁임신	-11.1531
▁박영선	-11.1532
의견	-11.1532
▁팔려	-11.1533
▁1960	-11.1534
▁울리	-11.1534
심리	-11.1535
▁영웅	-11.1535
▁채권단	-11.1535
▁주위	-11.1536
▁진압	-11.154
▁대통령실장	-11.1541
▁생활비	-11.1541
▁고용률	-11.1541
(25)	-11.1541
▁고령화	-11.1542
공정	-11.1542
대학원	-11.1546
(40)	-11.1548
▁들어선	-11.1548
▁전두환	-11.155
▁정보기술	-11.1551
▁한나라당이	-11.1555
▁면에서	-11.1555
▁끝나는	-11.1556
▁끝나면	-11.1558
▁어디	-11.156
▁모르고	-11.1561
▁놀이	-11.1565
▁소비자에게	-11.1568
▁마음에	-11.1571
▁순서	-11.1573
▁그친	-11.1574
▁신년	-11.1577
앙	-11.1577
▁GM	-11.1578
▁거부하고	-11.1579
▁움직이	-11.1579
▁안으로	-11.158
하우스	-11.1582
▁스탠퍼드대	-11.1583
▁진보적	-11.1584
짓	-11.1586
▁AFC	-11.1589
▁실어	-11.1592
▁감지	-11.1592
▁남미	-11.1593
·2	-11.1593
밭	-11.1594
▁남편이	-11.1595
쉬	-11.1595
네트워크	-11.1596
연평도	-11.1597
큰	-11.1598
박정희	-11.1598
▁형식으로	-11.1599
▁명확한	-11.1599
재판장	-11.1601
▁발생한다	-11.1603
▁병원에	-11.1604
▁무시하	-11.1605
특정	-11.1605
▁연료	-11.1606
▁간담회에서	-11.1608
▁1.5	-11.1609
▁영화제	-11.161
▁재선	-11.1613
호가	-11.1618
▁청와대에	-11.1618
▁판단이	-11.1618
▁찍어	-11.1622
▁약한	-11.1625
기존	-11.1628
▁세율	-11.1631
▁빈곤	-11.1633
스럽다	-11.1636
조건	-11.1639
▁참여하고	-11.164
수당	-11.164
법은	-11.1646
▁느끼는	-11.1647
▁가능성에	-11.165
▁가족과	-11.1666
▁진행했다	-11.1666
▁탓이	-11.1673
중심	-11.1673
▁가중	-11.1674
▁젖	-11.1674
▁정하고	-11.1676
▁돈은	-11.1677
곳으로	-11.1677
▁독자적	-11.1677
널리	-11.1678
당신	-11.1678
군에	-11.1678
▁지휘자	-11.1682
▁마찬가지	-11.1685
77	-11.1694
▁없지	-11.1697
보면	-11.1697
▁가로	-11.1698
소비자	-11.1698
▁대책이	-11.1704
▁고비	-11.1706
▁미드필더	-11.1712
▁부사장은	-11.1714
▁여부는	-11.1717
▁주장에	-11.1717
가칭	-11.1717
▁등재	-11.1719
자들	-11.1725
▁편입	-11.1729
▁본회의에	-11.173
색을	-11.1733
▁뽑는	-11.1735
▁제치	-11.1737
차량	-11.1739
해지는	-11.1742
▁비싸	-11.1743
윈	-11.1744
▁욕	-11.1751
▁윤씨	-11.1752
▁부른	-11.1752
▁긍정적	-11.1761
▁총괄하	-11.1761
▁권위	-11.1762
유지	-11.1763
▁사들	-11.1769
▁부산의	-11.177
이드	-11.1771
▁올림픽에	-11.1772
▁명에	-11.1776
딜	-11.1778
▁해온	-11.1778
▁사로잡	-11.178
▁많기	-11.178
▁섰다	-11.178
▁엇갈린	-11.178
▁유네스코	-11.178
▁권한대행	-11.178
▁됐고	-11.178
▁애플리케이션	-11.178
▁유소연	-11.178
▁좋을	-11.178
高	-11.178
▁맞벌이	-11.178
▁1-0	-11.178
▁마이크	-11.1781
▁가전제품	-11.1781
▁한양대	-11.1781
▁탈퇴	-11.1781
대표팀	-11.1781
(54)	-11.1781
▁담겼다	-11.1782
▁상원의원	-11.1782
▁의약품	-11.1782
▁밝혔지만	-11.1782
▁폭침	-11.1782
▁오승환	-11.1782
▁지뢰	-11.1783
▁불이익	-11.1783
▁터져	-11.1783
▁부원장	-11.1784
▁물품	-11.1784
▁자격증	-11.1784
▁중징계	-11.1785
▁장례	-11.1787
▁국정원장	-11.1787
▁85	-11.1789
▁개각	-11.1789
유플러스	-11.1789
▁흥분	-11.1789
▁승소	-11.179
▁본인이	-11.179
▁부결	-11.179
성장	-11.1791
▁국어	-11.1792
▁공채	-11.1792
▁축적	-11.1793
▁다가오	-11.1794
▁강점	-11.1795
▁일어났다	-11.1797
▁동북	-11.1798
▁불거지	-11.1798
▁사라졌다	-11.1798
▁납품업체	-11.1799
▁창구	-11.18
▁강령	-11.1801
▁보태	-11.1803
▁수위	-11.1805
▁고엽제	-11.1805
▁남경필	-11.1805
▁재판에	-11.1805
▁아시안컵	-11.1805
▁장편	-11.1806
▁위헌	-11.1808
▁음성	-11.1809
▁역전승	-11.1809
▁의혹과	-11.181
▁밴	-11.1811
▁복구	-11.1812
▁20~30	-11.1813
▁종합적으로	-11.1813
▁슛	-11.1815
▁낮게	-11.1816
▁단식	-11.1818
▁엄중	-11.1822
▁노려	-11.1825
▁빗	-11.1825
▁신용등급	-11.1826
(23)	-11.1827
▁있어도	-11.1827
▁CG	-11.1828
▁휴전	-11.183
▁반경	-11.183
다리	-11.183
▁현실화	-11.1831
▁출판	-11.1831
▁요금제	-11.1831
▁설명한다	-11.1831
▁뉴타운	-11.1832
간에	-11.1833
▁쇼핑	-11.1833
▁모으고	-11.1834
메일	-11.1835
시쯤	-11.1835
감이	-11.1835
94	-11.1838
▁철강	-11.1839
▁선진	-11.1841
▁문제도	-11.1842
▁노인들	-11.1843
▁15%	-11.1843
▁영상을	-11.1845
▁동점	-11.1845
▁친구들과	-11.1848
▁작곡가	-11.185
▁연결하는	-11.1851
라서	-11.1853
▁움직	-11.1855
▁영원	-11.1856
▁천안	-11.1857
▁고객에게	-11.1857
▁합의에	-11.186
▁통행	-11.186
▁남매	-11.1861
▁도주	-11.1863
▁왕자	-11.1866
▁교수들	-11.1868
▁공무원이	-11.1871
▁주사	-11.1872
·4	-11.1874
이재용	-11.1877
▁황금	-11.1877
체육	-11.1878
더라고요	-11.1879
▁시력	-11.1884
아버지	-11.1886
리그에서	-11.1886
잠	-11.1888
신청	-11.1889
文	-11.189
중소기업	-11.1891
맞춤형	-11.1891
한국방송	-11.1897
▁감사원장	-11.1898
▁결과로	-11.1899
그러나	-11.1899
▁준비한	-11.1901
철도	-11.1901
회가	-11.1902
▁정부도	-11.1905
▁파는	-11.1908
▁담장	-11.191
▁독도	-11.1911
▁택	-11.1912
무역	-11.1912
▁표면	-11.1914
▁본회의에서	-11.1918
처분	-11.1919
전북	-11.1924
▁참여한다	-11.1927
▁슈틸리케	-11.1928
▁다루는	-11.1929
▁사안이	-11.1933
액이	-11.194
층이	-11.1941
아무	-11.1941
▁돋보	-11.1942
▁기아차	-11.1944
▁적용할	-11.1945
▁마르	-11.1945
▁때문이	-11.1949
▁알리고	-11.1953
▁대국	-11.1953
월말	-11.1953
▁고심	-11.1957
▁적다	-11.1957
▁고교생	-11.1957
▁생일	-11.1957
▁하나다	-11.1958
▁일대에서	-11.1959
구간	-11.196
▁사용하고	-11.1961
▁읽어	-11.1964
▁보험사	-11.1973
▁얼굴이	-11.198
▁불린	-11.1986
▁포로	-11.199
▁위험한	-11.1992
▁보고서에	-11.1994
▁선행	-11.1995
▁82	-11.2002
▁2.5	-11.2002
인간	-11.2003
위안	-11.2003
▁포괄적	-11.2003
▁마련에	-11.2008
▁지키고	-11.2008
▁물의	-11.201
▁반면에	-11.2012
억원대	-11.2016
서울시	-11.2016
였	-11.2021
▁되풀이	-11.2024
ar	-11.2025
▁결혼식	-11.2027
▁불상	-11.2029
▁정치권의	-11.2032
▁연인	-11.2033
▁그에	-11.2034
▁대비한	-11.2034
▁달린	-11.2039
▁해커	-11.2039
▁대구시	-11.2042
법과	-11.2043
틸	-11.2043
▁떨어지고	-11.2045
용품	-11.2047
▁군의	-11.2048
▁대회가	-11.205
▁통로	-11.2054
▁설립한	-11.2056
▁코스닥	-11.2057
니스	-11.2057
되도록	-11.2059
대통령이	-11.206
▁기분	-11.2061
▁못지않	-11.2063
▁전면에	-11.2066
▁위원들	-11.2067
▁무력	-11.2067
▁멤버들	-11.207
▁선대위	-11.2072
▁바로잡	-11.2073
뷰	-11.2073
對	-11.2074
▁후보에	-11.2074
▁하라	-11.2074
新	-11.2074
▁옮김	-11.2074
非	-11.2074
▁굉장	-11.2074
▁밝은	-11.2074
▁옮긴	-11.2074
▁이뤘다	-11.2074
▁나뉜	-11.2074
▁인권침해	-11.2074
▁진상규명	-11.2074
三	-11.2074
▁중앙정보국	-11.2074
▁촉각	-11.2074
▁전지훈련	-11.2075
▁침략	-11.2075
▁모니터링	-11.2075
▁180	-11.2075
▁케이비	-11.2075
▁확립	-11.2075
▁전기요금	-11.2075
(46)	-11.2075
▁인접	-11.2075
(41)	-11.2075
(55)	-11.2076
▁음란물	-11.2076
93	-11.2076
▁태양광	-11.2076
여자오픈	-11.2076
▁편견	-11.2076
▁겨우	-11.2076
▁침투	-11.2077
▁페이스북에	-11.2077
▁표절	-11.2078
▁고조	-11.2078
▁케리	-11.2079
▁교직원	-11.2079
▁확진	-11.2079
▁함유	-11.2079
▁교란	-11.2079
▁악용	-11.2081
▁활력	-11.2081
독일	-11.2082
▁이틀간	-11.2082
▁붓	-11.2083
▁견디	-11.2083
▁계단	-11.2084
▁외국계	-11.2084
▁서버	-11.2084
▁인질	-11.2085
▁정상회담에서	-11.2086
▁관세	-11.2086
▁오르면	-11.2086
▁낸다	-11.2087
고객	-11.2087
▁재학	-11.2088
▁현대건설	-11.2088
▁GPS	-11.2088
▁합참의장	-11.2089
▁순이었다	-11.2089
▁언급하며	-11.209
업체인	-11.209
.1%)	-11.209
▁낯	-11.2093
▁개막식	-11.2093
▁소감	-11.2093
▁인플루엔자	-11.2094
▁비판적	-11.2094
▁취할	-11.2096
▁라운드	-11.2097
▁입력	-11.2097
▁관건	-11.2097
▁대표에게	-11.2097
▁우연	-11.2098
▁리베이트	-11.21
▁연행	-11.21
▁해결해야	-11.2101
졌지만	-11.2101
▁알아보	-11.2101
ch	-11.2102
▁유포	-11.2102
▁한자리에	-11.2102
▁유통업체	-11.2102
▁애정	-11.2103
(45)	-11.2103
톱	-11.2104
▁높지	-11.2105
▁방글라데시	-11.2105
▁3-1	-11.2107
▁차지하고	-11.2108
▁제작사	-11.211
it	-11.2111
▁강화하기	-11.2115
호주	-11.2115
▁시공사	-11.2115
▁나서야	-11.2115
▁상세	-11.2116
▁박차	-11.2116
호남	-11.2116
▁비타민	-11.2117
▁경쟁률	-11.2117
▁페이지	-11.2117
▁무단	-11.2118
▁민영화	-11.2119
▁맡는	-11.2122
▁누군가	-11.2122
▁환불	-11.2124
▁검정	-11.2124
▁진주	-11.2125
▁연구비	-11.2125
라면서	-11.213
▁기적	-11.2131
▁차분	-11.2131
▁땅에	-11.2132
▁화합	-11.2133
▁글자	-11.2134
▁미치	-11.2135
▁상주	-11.2137
십	-11.2139
▁조직력	-11.214
▁박모	-11.2141
몸	-11.2144
▁내놓는	-11.2145
실적	-11.2148
▁용도	-11.2148
▁Q	-11.2151
!"	-11.2153
▁온도	-11.2157
▁금융기관	-11.2158
회까지	-11.2161
▁클라우드	-11.2161
▁출시한	-11.2162
▁사업과	-11.2165
▁기준에	-11.2173
▁달에	-11.2174
끼	-11.2176
▁조문	-11.2176
▁조국	-11.2177
▁택시	-11.2177
▁사립고	-11.2178
▁선정해	-11.2178
▁이길	-11.2183
▁나이에	-11.2183
▁도서	-11.2186
▁띠	-11.2188
▁확산되고	-11.2193
▁요구안	-11.2193
NYT	-11.2193
촛불	-11.2194
前	-11.2194
▁통보했다	-11.2198
희망	-11.2206
번이	-11.2206
유출	-11.2207
젊은	-11.2208
리에	-11.2209
▁발표하면서	-11.2209
▁시점에	-11.2211
건에	-11.2211
▁전임자	-11.2211
▁다루	-11.2212
▁생각에	-11.2218
▁참석할	-11.2219
▁때문인	-11.222
?’	-11.2225
▁시원	-11.2225
▁들었	-11.2226
▁느끼고	-11.2226
정보를	-11.2227
▁극적	-11.2232
원의	-11.2234
해진다	-11.2236
▁모임인	-11.224
▁찾는다	-11.2241
▁전반적	-11.2242
▁대사관	-11.2242
▁‘2	-11.2248
▁문항	-11.2249
~8	-11.2251
▁승무원	-11.2251
중국은	-11.2252
▁반박	-11.2256
▁생각하	-11.2262
기보다는	-11.2263
▁편이	-11.2266
▁뿐만	-11.2267
▁입장이	-11.2273
▁유입	-11.2276
▁어렵고	-11.2279
▁효율	-11.228
총장	-11.228
▁혈	-11.2282
▁끌어올리	-11.2288
▁자유롭	-11.2292
▁개정안에	-11.2294
▁얻는	-11.2297
뿐이다	-11.23
▁재기	-11.2301
▁중앙위	-11.2301
▁원형	-11.2303
혹	-11.2306
▁출	-11.2312
달아	-11.2316
▁외곽	-11.2317
▁생겨	-11.2321
안정	-11.2321
수석	-11.2326
▁직원이	-11.2328
▁방영	-11.2331
▁가로막	-11.2333
▁발표하고	-11.2333
▁떨어졌	-11.234
젠	-11.2341
▁물이	-11.2353
▁다짐	-11.2355
▁보이기	-11.2356
▁중수부	-11.2357
▁법정에	-11.2367
▁될지	-11.237
멘	-11.2375
흑	-11.2376
▁달라진	-11.2377
▁수당	-11.2377
▁멸종	-11.2377
×	-11.2378
▁샌더스	-11.2378
▁구체화	-11.2378
▁달랐다	-11.2378
▁서희경	-11.2378
▁엇갈리	-11.2378
▁원내수석부대표	-11.2378
▁일으킨	-11.2378
▁노하우	-11.2378
▁로저스	-11.2378
▁손연재	-11.2378
▁로드맵	-11.2378
▁정근우	-11.2378
▁최형우	-11.2378
▁안희정	-11.2378
▁첼시	-11.2378
▁외환위기	-11.2378
(58)	-11.2378
(49)	-11.2378
▁충전	-11.2378
▁구자철	-11.2378
▁교습	-11.2379
▁씨제이	-11.2379
▁날짜	-11.2379
▁소규모	-11.2379
▁이틀째	-11.2379
▁자꾸	-11.2379
○○	-11.2379
▁실업	-11.2381
공화국	-11.2381
▁납부	-11.2382
집단	-11.2382
▁총력	-11.2383
▁정전	-11.2383
았지만	-11.2383
▁맑	-11.2384
▁묘사	-11.2385
▁1982	-11.2385
▁국무총리실	-11.2386
▁개방형	-11.2389
▁받아왔다	-11.2389
▁아쉽다	-11.239
▁올라온	-11.2391
▁상실	-11.2391
▁다투	-11.2391
▁규정한	-11.2391
▁배달	-11.2391
▁소중한	-11.2392
▁코오롱	-11.2392
▁서울메트로	-11.2392
▁오스트리아	-11.2392
▁막았다	-11.2393
▁집행위원장	-11.2394
부에	-11.2394
했으면	-11.2395
▁근대	-11.2395
▁쓰이는	-11.2396
▁등록금	-11.2396
▁이야기다	-11.2396
었습니다	-11.2396
▁남았다	-11.2397
▁없어요	-11.2398
회의에서	-11.2398
▁업	-11.2399
▁조업	-11.2401
▁기대된다	-11.2401
▁사무국장	-11.2402
▁마산	-11.2403
▁불안정	-11.2403
자들은	-11.2404
▁디자이너	-11.2404
▁주변에서	-11.2405
▁미달	-11.2405
▁기온	-11.2405
▁해결책	-11.2405
▁약사	-11.2407
▁특위	-11.2408
▁사태에	-11.2409
▁스리랑카	-11.2409
▁폐기물	-11.241
▁서방	-11.2411
▁진행될	-11.2412
▁감당	-11.2413
4)	-11.2414
▁그러면	-11.2416
▁정했다	-11.2416
▁우상호	-11.2417
▁놓치	-11.2417
▁맡는다	-11.2418
▁휴대	-11.2418
▁습관	-11.2418
▁숨기	-11.2419
단과	-11.242
▁턱	-11.2421
▁세계선수권	-11.2425
▁무엇을	-11.2429
▁집값	-11.2429
▁진행한	-11.2431
지검	-11.2431
▁오지	-11.2431
▁보험금	-11.2431
▁투입해	-11.2431
▁0.5	-11.2432
▁싸이	-11.2432
▁원조	-11.2433
▁일으키	-11.2435
건강	-11.2435
▁경유	-11.2436
▁강판	-11.2437
▁골라	-11.2438
▁공작	-11.2439
▁적용된다	-11.244
▁증상	-11.244
▁감청	-11.2441
▁약자	-11.2441
▁지원한	-11.2441
▁명동	-11.2441
▁달했다	-11.2442
▁미니	-11.2443
▁우정	-11.2444
▁나누는	-11.2444
▁한일	-11.2445
▁두차례	-11.2445
▁사형	-11.2445
▁스타들	-11.2445
▁삼성동	-11.2449
▁막으려	-11.245
답게	-11.2453
▁공격적	-11.2456
▁책이	-11.2457
▁데이	-11.2466
▁수사기관	-11.2466
▁체결했다	-11.2467
중이다	-11.2467
~10	-11.2471
남자	-11.2473
.5%)	-11.2474
▁헬기	-11.2474
므로	-11.248
▁부당한	-11.248
▁사랑을	-11.2485
▁실질적으로	-11.2486
▁판단에	-11.2487
▁재활	-11.2487
▁매수	-11.249
보좌관	-11.2495
▁하겠다고	-11.2497
▁노다	-11.2498
▁일기	-11.2499
▁최적	-11.2499
셀	-11.2502
▁상반기에	-11.2503
野	-11.2504
태평양	-11.2505
베르	-11.2505
싸움	-11.2506
아프리카	-11.2506
쌀	-11.2506
▁없는데	-11.2507
모바일	-11.2507
▁발효	-11.2508
글로벌	-11.2508
힘	-11.2508
▁독재	-11.2508
▁지점에서	-11.2511
▁머물고	-11.2512
▁정수	-11.2515
▁문화방송	-11.252
▁북한에서	-11.2522
었어요	-11.2524
울산	-11.2525
▁경쟁자	-11.2526
작업을	-11.2527
▁버핏	-11.2528
취업	-11.2528
평소	-11.2528
▁번째로	-11.2535
▁해안	-11.2535
전체	-11.2536
▁요원	-11.2543
▁운영한다	-11.2546
팬	-11.2547
▁노리고	-11.2548
▁접대	-11.2552
▁구역	-11.2552
방에서	-11.2554
주가	-11.2557
▁영등포구	-11.2557
▁소득세	-11.2559
룸	-11.2567
▁윈	-11.2569
▁시조	-11.257
공항	-11.2571
▁文	-11.2571
▁수법	-11.2572
▁점프	-11.258
▁봐도	-11.258
▁지인	-11.2584
▁거래가	-11.2585
▁부리	-11.2587
▁하는지	-11.2588
▁집중할	-11.2588
▁노력하겠다	-11.2589
자녀	-11.2589
▁9%	-11.2594
▁응시	-11.2594
▁사표	-11.2599
▁됐지만	-11.2605
▁마지막으로	-11.261
▁윤리	-11.2611
▁담보	-11.2612
▁건축가	-11.2615
▁사회복지	-11.2618
정상적인	-11.2621
강원	-11.2621
▁누워	-11.2624
2014	-11.2626
▁대응할	-11.2633
▁심정	-11.2634
▁승객들	-11.2635
성적	-11.2635
▁정모	-11.264
이에요	-11.2641
집행	-11.2642
▁죽음을	-11.2646
▁주도하	-11.2649
▁물러	-11.265
▁오픈	-11.2653
▁반발해	-11.2654
▁고령	-11.2659
▁흥	-11.2659
▁조사했다	-11.2661
▁파장이	-11.2665
▁지역별	-11.2667
▁전신	-11.2668
▁돌보	-11.2673
▁쏟아지	-11.2683
쾌	-11.2684
▁환자들	-11.2687
▁제한적	-11.2688
▁장기화	-11.269
親	-11.269
x	-11.269
▁가뭄	-11.269
▁느꼈다	-11.269
▁늑대	-11.269
▁돕기	-11.269
▁띈다	-11.269
▁않으려	-11.269
▁오디션	-11.269
▁좁은	-11.269
▁번갈아	-11.269
▁까닭	-11.269
The	-11.269
임태희	-11.269
▁두려움	-11.269
▁주중	-11.269
▁봉쇄	-11.269
▁고등학생	-11.2691
▁재가동	-11.2691
▁사립학교	-11.2691
▁이건희	-11.2691
▁몽골	-11.2691
▁흰색	-11.2691
▁증액	-11.2691
▁벗어난	-11.2691
▁졸업한	-11.2691
(53)	-11.2691
▁고소득층	-11.2691
▁외쳤다	-11.2692
▁패턴	-11.2692
▁이승만	-11.2692
▁돌렸다	-11.2692
▁돌풍	-11.2693
▁미국으로	-11.2693
▁꽉	-11.2693
▁직행	-11.2694
▁성범죄	-11.2694
▁기밀	-11.2695
▁체중	-11.2695
▁혁신학교	-11.2695
▁어두	-11.2696
▁항공유	-11.2696
▁선호	-11.2696
▁학살	-11.2696
▁보험료율	-11.2696
▁총알	-11.2697
▁대학생들	-11.2698
▁대북정책	-11.2698
▁우승했다	-11.2698
▁거리로	-11.2699
▁포함되지	-11.2701
부처	-11.2702
▁고백	-11.2702
▁지켜야	-11.2703
▁71	-11.2703
▁퇴장	-11.2704
▁착공	-11.2705
▁부적절하다	-11.2705
▁4~5	-11.2706
▁기념식	-11.2707
▁금연	-11.2709
▁영상물	-11.2709
컬	-11.2709
▁지역사회	-11.271
▁공소	-11.2711
▁저작권	-11.2711
머니	-11.2711
▁화장	-11.2714
▁강등	-11.2714
▁잃었다	-11.2715
▁참조	-11.2715
▁방중	-11.2715
▁다짐했다	-11.2716
▁아랍에미리트	-11.2717
▁알뜰폰	-11.2717
▁사우디아라비아	-11.2717
▁최승희	-11.2717
▁국가와	-11.2717
▁조짐	-11.2721
▁일환	-11.2721
▁유형	-11.2722
▁거짓	-11.2722
▁따내	-11.2722
▁점거	-11.2722
▁레슬링	-11.2723
▁전자발찌	-11.2723
▁판세	-11.2723
▁파동	-11.2723
▁관련해서	-11.2723
▁개발사업	-11.2723
▁생태계	-11.2725
▁조직이	-11.2727
▁긴장감	-11.2728
▁휠체어	-11.2729
▁기무사	-11.2729
▁퍼팅	-11.2729
(24)	-11.2729
▁이외에	-11.2729
▁동행	-11.273
▁싶다고	-11.2734
▁주차장	-11.2734
▁거세지	-11.2739
▁AI	-11.2742
▁책임론	-11.2742
▁리스트	-11.2742
▁오른다	-11.2743
▁두달	-11.2745
▁통해서	-11.2745
▁약물	-11.2747
(34)	-11.2747
▁많다는	-11.2748
▁식의	-11.2748
▁새누리	-11.275
▁방식은	-11.2752
▁재차	-11.2752
건이	-11.2755
▁내려가	-11.2755
▁고려한	-11.2756
▁무대로	-11.2758
▁형량	-11.2761
팀이	-11.2762
▁재의	-11.2762
▁상한	-11.2764
▁마운드	-11.2765
▁차별화된	-11.2767
▁졌다	-11.2769
▁지방정부	-11.2772
▁변화에	-11.2773
▁찾았	-11.2773
▁개장	-11.2774
▁비난했다	-11.2775
▁뼈	-11.2776
▁결승전	-11.2779
▁치밀	-11.2779
▁분명한	-11.278
▁관계에	-11.2783
▁질주	-11.2788
▁개시	-11.2791
특별	-11.2793
▁디스플레이	-11.2794
▁열세	-11.2795
▁나갔다	-11.2797
수출	-11.2798
▁만나는	-11.2799
▁최소화	-11.2801
▁너	-11.2804
제국	-11.2807
2009	-11.2808
건으로	-11.2809
▁관측도	-11.2809
▁몸값	-11.281
탐	-11.2812
▁양당	-11.2812
▁문장	-11.2812
▁초상	-11.2813
▁170	-11.2815
▁준공	-11.2816
(0	-11.2816
▁에스	-11.2817
회담	-11.2818
▁벌인다	-11.2819
▁전환을	-11.282
저축은행	-11.2821
▁배분	-11.2822
전시	-11.2823
▁가디언	-11.2824
▁졸	-11.2826
▁프로그램이	-11.2826
與	-11.2827
▁줘야	-11.2827
리바운드	-11.2827
ICT	-11.2828
▁주도권	-11.2828
나갈	-11.283
▁조세	-11.283
요즘	-11.2831
▁돌아와	-11.2831
▁어기	-11.2832
채널	-11.2832
부동산	-11.2833
국민의당	-11.2833
▁올렸	-11.2835
그때	-11.2836
▁걸음	-11.2839
아베	-11.2841
능	-11.2843
▁주장도	-11.2843
▁자료에	-11.2845
파업	-11.2847
겐	-11.2848
▁원안	-11.2849
체포	-11.2852
▁겨냥해	-11.2852
▁장사	-11.2853
▁벤	-11.2858
대결	-11.2861
▁정보기관	-11.2861
한국시각	-11.2863
▁MB	-11.2863
▁69	-11.2864
▁소송에서	-11.2864
▁성별	-11.2873
채권	-11.2877
부모	-11.2878
▁나도	-11.2879
경찰청	-11.2881
▁가나	-11.2881
▁선택했다	-11.2883
▁장성	-11.2885
▁상태에	-11.2887
▁선도	-11.2891
해보니	-11.2893
▁잘라	-11.2893
▁93	-11.2894
만대	-11.2894
▁기피	-11.2897
▁법적으로	-11.2897
▁탑재	-11.2898
▁부회장이	-11.2899
▁한중	-11.2901
상담	-11.2901
▁시비	-11.2901
▁반영해	-11.2903
법상	-11.2907
▁양대	-11.2911
법이	-11.2912
▁산하에	-11.2918
사령부	-11.2919
질서	-11.2921
▁재편	-11.2922
CO	-11.2934
▁원작	-11.2936
▁끌어내	-11.2937
▁전설	-11.2942
수입	-11.2949
▁기대감이	-11.2951
세상	-11.2955
▁준비했다	-11.2958
▁야당과	-11.2959
일보	-11.2962
KT	-11.2962
▁검출	-11.2969
잡이	-11.297
▁58	-11.2974
▁예비후보	-11.2974
▁서울과	-11.298
▁전사	-11.298
▁정무	-11.298
▁싶지	-11.2987
▁하느냐	-11.2988
▁국토	-11.2994
▁다하겠다	-11.2995
▁문화부	-11.2998
▁은폐	-11.3002
▁즐겨	-11.3002
▁재생	-11.3005
▁선택해	-11.3007
▁뛰는	-11.3009
▁추진해	-11.301
▁추징	-11.3011
京	-11.3012
▁나눴다	-11.3013
▁넓혀	-11.3013
▁무슬림형제단	-11.3013
▁바뀌면	-11.3013
▁샌토럼	-11.3013
▁않으며	-11.3013
▁엔씨소프트	-11.3013
▁캐머런	-11.3013
뜩	-11.3013
▁꺾었	-11.3013
▁특별사면	-11.3013
▁텐데	-11.3013
▁사라져	-11.3013
▁명예훼손	-11.3013
▁게이츠	-11.3013
▁압축	-11.3013
▁비상대책위원회	-11.3013
(69)	-11.3013
▁교섭	-11.3013
▁획기적	-11.3013
▁순이익	-11.3013
▁농담	-11.3013
▁태풍	-11.3014
▁벌어질	-11.3014
▁봉사활동	-11.3014
▁궁금	-11.3014
▁배럴	-11.3014
▁무책임	-11.3014
▁잔류	-11.3015
▁박병호	-11.3015
▁따냈다	-11.3015
▁끌려	-11.3015
▁생태	-11.3015
▁불허	-11.3015
▁이용객	-11.3016
▁모델로	-11.3016
▁퍼져	-11.3016
▁보여줄	-11.3017
▁통과시켰다	-11.3017
▁학술대회	-11.3017
▁출제	-11.3017
▁코피	-11.3017
▁공존	-11.3018
▁벤치	-11.3018
▁발송	-11.3018
▁고립	-11.3019
▁프리	-11.3019
대교	-11.3019
▁나름	-11.3019
▁첩보	-11.3019
▁사생활	-11.302
▁회의록	-11.302
▁보낼	-11.302
▁광역	-11.3022
▁증가하는	-11.3022
▁소셜네트워크서비스	-11.3022
▁6·2	-11.3024
이든	-11.3024
▁밀어	-11.3025
▁소속팀	-11.3026
▁음주	-11.3027
▁노예	-11.3027
▁막내	-11.3028
▁스트라이크	-11.3028
▁정수장학회	-11.3028
▁비상대책위원장	-11.3028
▁부친	-11.3028
▁시급하다	-11.3029
받는다	-11.303
▁혼선	-11.303
▁실감	-11.303
▁주변국	-11.3031
▁상표	-11.3034
IP	-11.3034
▁시공	-11.3036
▁백석	-11.3036
▁진심	-11.3037
▁강남권	-11.304
▁교차	-11.3041
보건	-11.3042
▁유대인	-11.3043
피안타	-11.3044
(31)	-11.3044
▁돌아가는	-11.3044
▁내걸고	-11.3045
▁문화재청	-11.3047
▁넣었다	-11.3047
▁사제	-11.3048
▁김정남	-11.3048
▁재미있	-11.3049
▁분석됐다	-11.3051
▁근본적으로	-11.3052
▁시국선언	-11.3053
▁사우디	-11.3053
▁학생과	-11.3053
▁항공권	-11.3054
▁도착했다	-11.3054
▁젊은층	-11.3054
▁감상	-11.3055
▁등장한	-11.3058
▁싱크탱크	-11.3059
▁둘러	-11.306
▁호소하	-11.3065
▁인공	-11.3065
▁임대주택	-11.3066
▁노숙인	-11.3068
▁표시했다	-11.3068
▁학력	-11.307
▁맨체스터	-11.3071
3)	-11.3071
▁공짜	-11.3072
▁인성	-11.3072
▁빠져들	-11.3074
▁하락세	-11.3075
(22)	-11.3078
▁고객들	-11.3082
▁에티오피아	-11.3083
▁회사와	-11.3088
▁줄였다	-11.3089
▁글이	-11.3089
▁등장하는	-11.3098
명에서	-11.3103
강전에서	-11.3105
사전	-11.3106
▁계약이	-11.3109
▁시중은행	-11.3112
▁세무	-11.3114
티브	-11.3114
▁언제든	-11.3115
▁않다고	-11.3118
농구	-11.3125
·3	-11.3128
인력	-11.3134
▁지키기	-11.3134
▁숨지고	-11.3135
▁반영한	-11.3135
▁점에	-11.3137
▁마련하고	-11.3137
스티	-11.3137
▁효	-11.3145
▁국민과	-11.3147
▁몸이	-11.3149
▁아르	-11.3149
통제	-11.315
서로	-11.3151
▁거장	-11.3153
었기	-11.3153
아들	-11.3156
▁거부하는	-11.3158
추진	-11.3158
▁설치해	-11.3159
▁안동	-11.316
NC	-11.3161
홈	-11.3162
벤	-11.3163
넘	-11.3163
스페인	-11.3163
설명회	-11.3163
단일화	-11.3164
북핵	-11.3166
치를	-11.3168
▁아직까지	-11.3171
▁못하다	-11.3172
지금은	-11.3176
민족	-11.3179
협동조합	-11.3179
▁내게	-11.3179
▁종로	-11.318
년차	-11.3183
▁통지	-11.3184
케어	-11.3185
▁빌딩	-11.3189
말라	-11.3191
▁대안으로	-11.3193
▁법조인	-11.3193
마음	-11.3194
▁방위	-11.3194
▁약세	-11.3195
▁취	-11.3196
MD	-11.3196
▁그치	-11.3198
▁정해진	-11.32
▁압도	-11.3209
▁시작할	-11.3214
차별	-11.3214
을까	-11.3216
▁효율적	-11.3216
▁충당	-11.322
▁입당	-11.3221
▁수요를	-11.3224
▁아래로	-11.3224
▁올림픽에서	-11.3225
MB	-11.3227
신의	-11.3233
▁이외	-11.3233
피해자	-11.3235
계에서	-11.3237
▁주인이	-11.3242
▁재현	-11.3249
UN	-11.3251
▁출발한	-11.3253
▁지원이	-11.3258
▁사리	-11.326
▁증	-11.3262
▁방법은	-11.3263
▁넘겨받	-11.3265
▁못했	-11.327
▁수중	-11.3271
하겠지만	-11.3271
▁모금	-11.328
▁두산이	-11.3281
▁출발해	-11.3283
▁강국	-11.3287
▁따지	-11.3287
교류	-11.329
▁카라	-11.3291
▁가격에	-11.3295
▁것이지만	-11.3295
만약	-11.3295
하기보다	-11.3299
▁반복되	-11.33
개방	-11.3304
낭	-11.3307
.9%)	-11.3307
▁라면	-11.331
▁단행	-11.3311
▁대학에서	-11.3312
▁이용자들	-11.3312
▁일시적	-11.3314
▁환호	-11.3318
▁원가	-11.3319
▁78	-11.332
▁최강	-11.3324
▁돌입	-11.3324
수술	-11.3326
럼	-11.3329
댄	-11.3334
▁친구가	-11.3334
▁상식	-11.3334
▁외신	-11.3336
▁초기에	-11.334
▁붙잡	-11.334
▁기후변화	-11.3342
큐	-11.3342
▁분류되	-11.3343
▁공무원들	-11.3344
랭	-11.3346
▁국내총생산	-11.3346
셜록홈즈	-11.3346
▁국제통화기금	-11.3346
▁나눔	-11.3346
▁듣기	-11.3346
▁막걸리	-11.3346
▁맞섰다	-11.3346
▁바뀔	-11.3346
▁올라섰다	-11.3346
▁중앙선거관리위원회	-11.3346
▁커뮤니티	-11.3346
▁무분별	-11.3346
▁박용택	-11.3346
家	-11.3346
▁몸무게	-11.3346
▁앞세운	-11.3346
▁짚었다	-11.3346
▁후진타오	-11.3346
▁싱글	-11.3346
▁정례	-11.3346
▁낭비	-11.3346
▁론스타	-11.3346
▁압둘	-11.3346
▁인삼공사	-11.3346
▁트럭	-11.3346
▁현대캐피탈	-11.3346
▁구제금융	-11.3346
▁궤도	-11.3346
▁박탈	-11.3347
▁집단소송	-11.3347
(37)	-11.3347
▁런던올림픽	-11.3347
▁현대중공업	-11.3347
▁늦추	-11.3347
▁기성용	-11.3348
▁돌아갔다	-11.3348
▁신생아	-11.3348
▁물류	-11.3349
▁도망	-11.3349
▁목록	-11.3349
▁직속	-11.3349
▁같아요	-11.3349
▁이뤄져야	-11.335
▁낙마	-11.335
▁추산된다	-11.335
▁서초동	-11.335
▁테니스	-11.3351
▁기습	-11.3351
대회에서	-11.3351
▁자율형	-11.3352
▁의욕	-11.3352
▁서술	-11.3353
▁주먹	-11.3354
▁없으며	-11.3354
▁보행자	-11.3355
▁함미	-11.3356
▁무산됐다	-11.3357
▁키웠다	-11.3358
▁돌연	-11.3358
▁카트	-11.3358
▁한화그룹	-11.3359
▁살피	-11.3359
▁어울리	-11.336
▁천재	-11.336
▁메우	-11.336
▁차등	-11.3361
▁포석	-11.3361
▁훌륭한	-11.3361
스럽게	-11.3362
▁법령	-11.3363
▁발판	-11.3363
이거나	-11.3363
▁하버드대	-11.3363
▁찍었다	-11.3364
▁써야	-11.3364
▁화석	-11.3365
▁귀화	-11.3365
▁차남	-11.3366
▁은행들이	-11.3366
▁해외자원개발	-11.3368
▁원세훈	-11.3368
▁최태원	-11.3368
▁에버랜드	-11.3368
▁명성	-11.337
▁비대위원장	-11.3371
▁믿는다	-11.3372
▁확보에	-11.3372
▁유리하다	-11.3373
▁오류	-11.3373
▁괌	-11.3375
800	-11.3377
▁시범사업	-11.3377
▁혁신안	-11.3379
▁더이상	-11.338
▁퀸	-11.338
▁사육	-11.3383
▁반납	-11.3388
▁김영삼	-11.3389
▁광주시	-11.3389
▁닫	-11.3389
▁안전한	-11.339
▁후에	-11.3391
▁이룰	-11.3392
▁59	-11.3393
▁IoT	-11.3394
▁가방	-11.3394
▁개인적	-11.3394
▁도덕적	-11.3394
▁성폭력	-11.3396
었으나	-11.3396
▁성명서	-11.3397
▁보상금	-11.3397
▁확인하기	-11.3397
▁잭	-11.34
▁트리플	-11.34
▁상태였다	-11.34
▁증언했다	-11.3404
▁합류했다	-11.3405
워드	-11.3405
▁간주	-11.3406
▁유로	-11.3409
시기	-11.3411
▁용량	-11.3411
▁점심	-11.3412
▁골자	-11.3412
▁위기감	-11.3414
지영	-11.3414
▁우편	-11.3415
▁시행된	-11.3415
▁등기	-11.3416
통상	-11.3417
▁현대사	-11.3417
▁혈관	-11.3418
할까	-11.3419
▁“6	-11.3421
▁정운	-11.3422
▁지나면	-11.3423
▁장식	-11.3426
▁신분으로	-11.3427
보도	-11.3427
▁폭이	-11.3429
▁동반자	-11.3429
편의	-11.343
▁풍자	-11.3432
▁무용	-11.3433
▁소주	-11.3434
미국은	-11.3434
▁들여다보	-11.3434
▁도와	-11.3435
쳤	-11.3436
▁뒀다	-11.3438
▁배수	-11.344
▁익	-11.3442
▁홀에서	-11.3449
대구	-11.345
▁목적이	-11.345
▁한국군	-11.3453
해서는	-11.3455
▁거부권	-11.3455
▁발견했다	-11.3456
군사	-11.3457
▁대상은	-11.3458
▁1300	-11.3463
▁후반기	-11.3465
▁대단	-11.3469
▁수도권에서	-11.3471
야구	-11.3472
▁오르고	-11.3473
▁스폰서	-11.3474
▁사람들과	-11.3476
▁제공할	-11.3478
▁세력이	-11.3479
▁있는데도	-11.3481
▁가상	-11.3482
▁수원시	-11.3483
▁치른다	-11.3485
(22	-11.3485
▁도달	-11.3486
com	-11.3487
▁기억이	-11.3493
▁엘리	-11.3495
▁계약서	-11.3497
시리즈	-11.3499
▁일에	-11.3501
빌딩	-11.3502
▁金	-11.3502
▁유가족들	-11.3503
靑	-11.3503
▁고시	-11.3504
〈	-11.3504
▁용기	-11.3504
▁삼성과	-11.3505
프로그램	-11.3505
중국이	-11.3508
내용	-11.3508
챔피언십	-11.3508
합의	-11.3509
여론조사	-11.3509
등록	-11.351
▁도구	-11.3514
▁하려면	-11.3515
펜	-11.3516
▁고장	-11.3523
▁수사관	-11.3526
▁제품이	-11.3528
▁높	-11.3528
▁구하기	-11.353
▁당해	-11.3533
▁건설사들	-11.3534
▁인수한	-11.3535
▁송도	-11.3536
▁비유	-11.354
외국인	-11.354
지금까지	-11.354
▁취한	-11.3543
▁합의안	-11.3548
전남	-11.3549
▁활용하	-11.3549
▁'1	-11.355
▁애국	-11.3551
▁언	-11.3552
소설	-11.3554
▁골퍼	-11.3554
회와	-11.3557
▁신사	-11.3559
아무개씨	-11.3559
▁농가	-11.356
▁거주하	-11.3563
▁것임	-11.3563
▁정치인들	-11.3565
▁배가	-11.3567
▁전제	-11.3568
▁들지	-11.3573
▁특이	-11.3576
해준다	-11.3576
▁비판하고	-11.3577
이죠	-11.3579
호텔에서	-11.3581
아르	-11.3584
▁출신이다	-11.3588
(‘	-11.3588
▁사람과	-11.3589
했음	-11.3594
플레이	-11.36
▁영양	-11.3603
▁이용자	-11.3608
재산	-11.3608
관이	-11.3613
▁들어오는	-11.3614
▁3.3	-11.3616
당원	-11.3618
▁신청한	-11.3621
▁성주	-11.3621
▁밖에서	-11.3622
▁서비스업	-11.3627
듯이	-11.3628
▁수협	-11.3628
▁장교	-11.3629
▁자리잡	-11.363
▁가세	-11.3631
▁경사	-11.3631
▁들려	-11.3632
▁서초	-11.3642
▁확대해	-11.3644
▁샤	-11.3648
경기장	-11.3648
....”	-11.3649
▁내준	-11.365
근본적인	-11.3651
▁연승	-11.3652
▁사라진	-11.3652
▁비슷하	-11.3653
로선	-11.3656
시켰	-11.3657
명령	-11.3657
▁73	-11.3659
▁어깨를	-11.366
▁파주	-11.366
▁아트	-11.3664
▁의료비	-11.3665
▁나타내	-11.3669
▁대변	-11.3671
▁빼돌	-11.3677
▁거부한	-11.3678
우는	-11.3679
▁뛰어나	-11.3679
2017	-11.3679
▁뉴	-11.3682
끔	-11.3683
교회	-11.3684
곱	-11.3684
▁겹치	-11.3685
▁휩싸	-11.3686
▁배운	-11.3686
▁테마	-11.3686
집을	-11.3686
▁공개할	-11.3687
1987	-11.3687
뱅	-11.3689
▁“10	-11.369
럭	-11.369
▁광화문	-11.3691
▁컨테이너	-11.3691
°	-11.3691
▁건넸다	-11.3691
▁됐을	-11.3691
▁맨해튼	-11.3691
▁메르켈	-11.3691
▁바쁜	-11.3691
▁불확실성	-11.3691
▁소득대체율	-11.3691
▁않느냐	-11.3691
▁않으냐	-11.3691
▁요셉의원	-11.3691
▁이렇다	-11.3691
▁핵탄두	-11.3691
南	-11.3691
▁패러다임	-11.3691
▁촉발	-11.3691
▁협업	-11.3691
▁누르고	-11.3691
▁의구심	-11.3691
▁풍부한	-11.3691
닷컴	-11.3691
▁균열	-11.3691
▁김세영	-11.3691
▁헌혈	-11.3691
▁이호준	-11.3691
▁경제성	-11.3691
▁스티브	-11.3691
▁서둘러	-11.3691
▁격렬	-11.3691
▁테스트	-11.3692
▁기념행사	-11.3692
▁빠질	-11.3692
▁나뉘	-11.3692
▁존슨	-11.3692
▁비춰	-11.3692
▁맥락	-11.3692
▁절대평가	-11.3692
▁검열	-11.3693
▁기다려	-11.3693
▁남짓	-11.3693
▁참의원	-11.3694
▁내용과	-11.3694
▁담담	-11.3694
▁마을에	-11.3694
▁누락	-11.3694
▁코너	-11.3694
▁비닐	-11.3695
했더니	-11.3696
▁장벽	-11.3696
▁외교안보	-11.3696
여명을	-11.3697
▁박영수	-11.3697
▁농단	-11.3697
▁하향	-11.3698
▁1974	-11.3698
▁효력	-11.3698
▁사냥	-11.3698
▁거리에서	-11.3698
▁감행	-11.3699
▁1975	-11.3699
스틴	-11.3699
식품	-11.37
▁그럴	-11.37
▁차림	-11.3701
▁83	-11.3702
▁오존	-11.3702
▁번지	-11.3702
▁개량	-11.3702
▁다양화	-11.3702
▁영향력이	-11.3705
▁흐름이	-11.3705
▁참패	-11.3705
▁관련자	-11.3706
▁개정안은	-11.3707
▁의외	-11.3708
공동선언	-11.3709
▁하도급	-11.3711
▁현실이	-11.3711
▁상대방	-11.3711
▁방한한	-11.3711
▁조례안	-11.3711
▁가요	-11.3712
▁명인	-11.3713
▁소음	-11.3713
▁플라스틱	-11.3713
장인	-11.3714
▁산부인과	-11.3714
▁교향곡	-11.3714
▁관계자가	-11.3714
▁여전	-11.3716
▁최후	-11.3717
▁경제성장	-11.3717
▁자유형	-11.3717
(21·	-11.372
▁어린이들	-11.372
▁콘크리트	-11.372
피아	-11.3721
▁구단과	-11.3722
▁가능할	-11.3723
사과	-11.3723
(40	-11.3723
▁지난해까지	-11.3724
▁4500	-11.3726
(60)	-11.3727
▁스토리	-11.3727
▁아닌지	-11.3727
▁코미디	-11.3727
▁충분하다	-11.3728
▁다가가	-11.3729
▁세입자	-11.3729
소장	-11.373
▁노동조합	-11.373
∼4	-11.3731
▁피해는	-11.3733
되기도	-11.3733
야권	-11.3735
▁넘어선	-11.3736
▁된다면	-11.3737
급하게	-11.3737
▁보물	-11.3737
▁파격적	-11.3739
▁익명	-11.3741
▁꼬	-11.3741
▁평균자책점	-11.3744
▁소식이	-11.3744
▁책임감	-11.3744
(50)	-11.3744
▁마빈스	-11.3747
▁글씨	-11.3747
률은	-11.3748
▁주민과	-11.3752
▁멍	-11.3753
▁밤에	-11.3754
▁KTX	-11.3754
▁외압	-11.3755
▁배임	-11.3756
▁전국적으로	-11.3756
▁충청	-11.3757
▁세번째	-11.3757
▁0.4	-11.3759
▁테이프	-11.376
▁수상자	-11.3762
▁공장에서	-11.3764
▁퇴직금	-11.3764
▁수확	-11.3765
▁생기면	-11.3765
▁일시	-11.3767
센터에서	-11.3767
▁국정감사에서	-11.3772
▁바이올린	-11.3773
▁써서	-11.3776
되지만	-11.3777
▁나타나는	-11.3777
▁강호	-11.3778
피스	-11.3781
▁미시간	-11.3782
▁그러다	-11.3782
▁둔화	-11.3783
▁바르셀로나	-11.3786
▁마련하는	-11.3787
el	-11.3791
▁꼴	-11.3793
▁부장관	-11.3793
▁신화	-11.3799
▁치를	-11.3804
▁항소심에서	-11.3806
노동자	-11.3809
▁이전까지	-11.3811
▁하락했다	-11.3815
▁성장세	-11.382
▁빵	-11.382
▁악화되	-11.3821
▁일반고	-11.3821
▁골퍼들	-11.3831
▁결단	-11.3831
▁에스비에스	-11.3833
▁위주의	-11.3833
▁처한	-11.3839
마르	-11.3839
자신	-11.3839
▁시달리고	-11.3841
▁높았	-11.3842
▁건국	-11.3842
▁대리	-11.3845
▁발견되	-11.3846
▁재난	-11.385
▁전적	-11.3852
▁가전	-11.3853
▁광산	-11.3859
▁선정된	-11.386
▁내외	-11.3861
캠프	-11.3861
땅	-11.3863
떡	-11.3863
뜻	-11.3863
팀은	-11.3863
캐	-11.3864
민주주의	-11.3864
마지막	-11.3866
쓴	-11.3866
KBS	-11.3867
▁우승자	-11.3869
▁짓고	-11.3869
하늘	-11.3869
1.5%	-11.3871
▁않았다는	-11.3871
단장	-11.3874
▁통과했다	-11.3874
갈등	-11.3874
▁먹을	-11.3875
증세	-11.3876
▁차려	-11.3877
결국	-11.3881
▁문구를	-11.3882
▁회고	-11.3885
▁후보자로	-11.3887
사상	-11.3892
2008	-11.3894
▁상승했다	-11.3895
판에	-11.3898
중학교	-11.3901
~1	-11.3903
▁시도했다	-11.3908
▁십	-11.3908
▁시작되는	-11.3909
▁아니었	-11.3911
▁보고했다	-11.3913
▁흐	-11.3916
▁현지에서	-11.3917
▁벌이	-11.3918
▁경우엔	-11.392
소재	-11.3921
▁주인공이	-11.3924
▁터지	-11.3925
▁영향으로	-11.3931
▁세월	-11.3933
▁표적	-11.3934
▁취지에	-11.394
▁털어	-11.3942
▁김병	-11.3947
공단	-11.395
▁젊	-11.3952
없습니다	-11.3952
▁단위로	-11.3955
래도	-11.3957
▁넓히	-11.3958
▁산다	-11.3959
▁출범한	-11.3961
개교	-11.3961
▁단일	-11.3961
반지	-11.3962
▁ᄀ	-11.3964
대북	-11.3968
▁남지	-11.3968
▁이후로	-11.3969
▁생각하지	-11.3969
건을	-11.3971
나가는	-11.3971
(34	-11.3972
▁내용으로	-11.3974
▁한다며	-11.3976
훈장	-11.3977
자연	-11.3977
▁고의	-11.3977
▁정황이	-11.3979
악기	-11.398
▁켜	-11.3981
▁첫해	-11.3981
▁'3	-11.3981
티브이	-11.3982
▁퇴	-11.3983
▁확보해	-11.3987
▁교수와	-11.3991
▁차별화	-11.3992
▁분기	-11.3992
겠느냐	-11.3994
▁유지하기	-11.3995
▁국무회의	-11.3997
폭탄	-11.4
▁여러분	-11.4001
97	-11.4002
공동	-11.4003
낸다	-11.4005
놀이	-11.4006
인상	-11.4009
감정	-11.4011
▁동작을	-11.4011
▁데뷔한	-11.4012
▁지급하는	-11.4013
▁내려놓	-11.4017
쇄	-11.4018
무대	-11.4018
인도적	-11.4024
▁허물	-11.4025
▁논의하기	-11.4026
▁라이	-11.4032
▁이스라엘은	-11.4032
▁케이	-11.4033
▁해저	-11.4035
▁지원했다	-11.4039
▁새겨	-11.404
구청장	-11.4043
튼	-11.4044
▁부족해	-11.4045
▁확신	-11.4046
▁붉은	-11.4047
핏	-11.4047
달라는	-11.4047
▁작품으로	-11.4048
넬	-11.4048
닛	-11.4048
▁국립중앙박물관	-11.4048
▁나이지리아	-11.4048
▁무함마드	-11.4048
▁산업통상자원부	-11.4048
▁스피드스케이팅	-11.4048
▁업그레이드	-11.4048
▁자릿수	-11.4048
▁주목받고	-11.4048
▁걷어	-11.4048
山	-11.4048
故	-11.4048
거든요	-11.4048
쥔	-11.4048
▁객관적	-11.4048
▁아무것도	-11.4048
▁공론화	-11.4048
▁교도소	-11.4048
▁칼슘	-11.4048
▁객석	-11.4048
▁쿠폰	-11.4048
▁치닫	-11.4048
▁휴대폰	-11.4048
▁다뤄	-11.4048
비비시	-11.4048
▁유로존	-11.4048
▁신용평가	-11.4048
ww	-11.4048
▁회견	-11.4049
▁무덤	-11.4049
▁출처	-11.4049
▁문턱	-11.4049
▁일상생활	-11.4049
▁탑승	-11.4049
▁국익	-11.4049
▁신분증	-11.405
▁불공정	-11.405
▁체제로	-11.405
▁가끔	-11.405
▁줘	-11.405
▁위탁	-11.4051
▁참여연대	-11.4051
▁김대현	-11.4052
▁포탄	-11.4052
▁수석대표	-11.4052
▁아사드	-11.4052
▁시민사회	-11.4053
▁자치구	-11.4053
▁1991	-11.4053
▁화물	-11.4054
▁지경부	-11.4054
▁국방위원회	-11.4055
▁높아질	-11.4055
그룹의	-11.4056
▁뒤집어	-11.4056
▁발족	-11.4058
▁우려해	-11.4058
▁사막	-11.4058
▁적시타	-11.4059
▁귀순	-11.4059
▁존재감	-11.406
▁물려	-11.406
▁세균	-11.4061
▁의존하	-11.4061
▁현저	-11.4062
▁빠져나	-11.4062
▁유명하다	-11.4062
▁교역	-11.4063
▁거죠	-11.4064
▁함정	-11.4064
이었는데	-11.4065
▁달라질	-11.4065
▁달라졌다	-11.4065
▁물에	-11.4065
▁최우수선수	-11.4068
▁노동시장	-11.4068
▁만들려	-11.4068
▁구두	-11.4068
▁명태	-11.4069
▁알렸다	-11.407
▁미쳤다	-11.407
▁신속히	-11.4071
▁닭	-11.4072
▁득표율	-11.4073
▁대국민	-11.4075
▁이승우	-11.4075
▁불길	-11.4075
▁확대되	-11.4076
▁음료	-11.4077
▁공급을	-11.4078
▁일간지	-11.4078
▁스미스	-11.4079
▁후쿠시마	-11.4079
▁주장하며	-11.4079
▁뼈대로	-11.4079
▁할머니들	-11.408
(44)	-11.408
연전	-11.408
▁총무	-11.4081
▁적법	-11.4081
▁내려오	-11.4082
▁있었기	-11.4083
▁경신	-11.4084
▁진보정당	-11.4086
▁보이자	-11.4088
▁소동	-11.4089
보선	-11.4089
정상	-11.409
▁행정관	-11.409
▁국영	-11.409
▁편리	-11.409
▁동아리	-11.4091
▁1983	-11.4091
∼1	-11.4094
▁반해	-11.4094
박스	-11.4095
▁답한	-11.4096
▁신선	-11.4099
▁제일모직	-11.4099
▁방망이	-11.4099
▁상황이었다	-11.41
▁끝내기	-11.41
▁연재	-11.41
▁외교장관	-11.4101
▁카카오	-11.4101
▁조현	-11.4103
지분	-11.4103
▁기각했다	-11.4104
▁말은	-11.4104
▁긍정적으로	-11.4105
공학	-11.4105
▁당사자인	-11.4107
▁합법적	-11.4108
조기	-11.4108
▁바꾸고	-11.4109
▁단체들	-11.411
▁세탁기	-11.411
▁참고인	-11.4111
▁소위	-11.4111
▁조건이	-11.4113
▁일어나는	-11.4114
972	-11.4116
▁비자	-11.4117
▁정부군	-11.4119
▁세워진	-11.4122
▁연령대	-11.4122
▁최상	-11.4123
▁대개	-11.4124
▁의사들	-11.4124
▁레드	-11.4125
▁뜬	-11.4127
서울대	-11.4127
▁임원이	-11.4129
▁조성된	-11.4132
▁수용할	-11.4135
▁불거졌	-11.4136
▁차지한다	-11.4136
▁파주시	-11.4137
▁쌓인	-11.4137
▁신용	-11.414
학부	-11.4147
▁기상	-11.4147
▁지금보다	-11.4156
▁후보자를	-11.4158
▁상품권	-11.4159
▁제압	-11.4159
▁셋	-11.4162
2015	-11.4163
▁인물들	-11.4166
▁반기	-11.4166
▁檢	-11.4168
소득세	-11.4169
▁62	-11.4169
봇	-11.417
▁신차	-11.4171
▁아닌데	-11.4173
▁행장	-11.4173
▁센터장	-11.4177
기만	-11.4177
▁과거사	-11.4183
▁활동한	-11.4183
▁지었다	-11.4184
▁확정할	-11.4184
▁나간	-11.4188
▁업무용	-11.4188
▁행적	-11.4191
해운	-11.4191
▁취임한	-11.4192
▁느끼지	-11.4192
▁이색	-11.4192
▁이사장이	-11.4196
아이들	-11.4196
▁산악	-11.4199
▁선명	-11.4202
▁나라에서	-11.4203
▁쟁점이	-11.4207
▁표지	-11.4208
선수권대회	-11.4212
▁애플이	-11.4212
▁모였다	-11.4213
▁입점	-11.4214
▁선원	-11.4218
▁개인적으로	-11.4218
▁학교에서	-11.422
▁하기로	-11.422
▁작품들	-11.4222
▁속한	-11.4226
▁해내	-11.4226
싼	-11.4227
▁정계	-11.4228
▁사실이다	-11.4229
핀	-11.4229
▁회피	-11.423
펄	-11.4231
▁맞다	-11.4231
GDP	-11.4232
청문회	-11.4233
기아차	-11.4234
떼	-11.4234
갖	-11.4235
체험	-11.4235
▁분신	-11.4235
워싱턴	-11.4235
수첩	-11.4235
▁불과한	-11.4236
▁서울시와	-11.4236
간호사	-11.4236
CJ	-11.4237
정동	-11.4237
▁만점	-11.4238
관련	-11.4239
▁살았	-11.424
▁경향	-11.424
좌파	-11.4241
▁유임	-11.4244
연극	-11.4245
▁유럽에서	-11.4246
09	-11.4248
▁사무실에	-11.425
닉	-11.4252
대사관	-11.4252
유통	-11.4255
통장	-11.4257
▁창업자	-11.4257
돼지	-11.4259
매체	-11.4259
▁실시간	-11.426
번역	-11.4262
▁기세	-11.4262
▁벌일	-11.4263
분이	-11.4265
▁행보에	-11.427
하루	-11.4271
▁거절	-11.4272
세금	-11.4272
▁진행된다	-11.4273
▁듯했다	-11.4275
▁데서	-11.4276
채용	-11.4284
▁업체에	-11.4285
▁특징이	-11.4286
상대	-11.4288
(28	-11.4291
▁평가받는	-11.4295
치고	-11.4297
형제	-11.4298
▁환경이	-11.4298
▁해역	-11.4299
요구	-11.43
▁공격으로	-11.43
▁수령	-11.4302
▁작업은	-11.4302
신도시	-11.4303
▁질문이	-11.4306
하원	-11.4308
▁진행해	-11.4309
▁불안감	-11.4313
▁김형	-11.4315
▁밑돌	-11.4317
▁법정에서	-11.432
비가	-11.432
▁:	-11.4321
▁조사관	-11.4322
▁베이징에서	-11.4322
▁상인들	-11.4323
▁비가	-11.4324
지법	-11.4327
시키지	-11.4328
비서관	-11.433
▁돌리	-11.4332
...’	-11.4332
인생	-11.4333
▁형편이	-11.4334
▁선거권	-11.4337
▁인터넷에	-11.4343
▁슈퍼	-11.4345
▁생각하면	-11.4346
복을	-11.4348
▁동창	-11.435
▁임원들	-11.4352
명가량	-11.4352
▁직접적	-11.4355
차곡	-11.4356
▁중심에	-11.4358
르게	-11.4361
▁넘을	-11.4361
레스	-11.4361
센터장	-11.4364
▁회전	-11.4365
▁의문이	-11.4366
▁학급	-11.4372
▁덩	-11.4373
뿐이었다	-11.4376
▁휘말	-11.4377
차원	-11.4377
▁상속	-11.438
▁뜯어	-11.4381
▁정관	-11.4381
롭	-11.4382
▁국정원이	-11.4382
▁원심	-11.4383
▁병실	-11.4384
▁내줬	-11.4386
▁외과	-11.4387
계약을	-11.4387
▁직면	-11.4388
▁개정안이	-11.4389
검찰이	-11.439
▁때만	-11.4391
▁후손	-11.4392
▁지나가	-11.4393
▁지원받	-11.4397
▁말하기	-11.4398
▁기울여	-11.4398
▁차관이	-11.4402
실로	-11.4406
▁윌리엄	-11.4409
▁모르	-11.4409
▁빠졌	-11.4411
▁재판에서	-11.4411
▁머무	-11.4414
▁줬	-11.4415
▁특별검사	-11.4416
데도	-11.4416
텍	-11.4417
▁달리는	-11.4417
숭	-11.4417
▁바깥	-11.4417
▁갇혀	-11.4418
▁라이선스	-11.4418
▁많게	-11.4418
▁뮤직비디오	-11.4418
▁바뀌어	-11.4418
▁심포지엄	-11.4418
▁일으켜	-11.4418
▁자유선진당	-11.4418
넌	-11.4418
뭇	-11.4418
▁국가인권위원회	-11.4418
▁멈춰	-11.4418
▁바람직하다	-11.4418
▁불어넣	-11.4418
▁플리트	-11.4418
▁배터리	-11.4418
▁다국적	-11.4418
▁하승진	-11.4418
▁눌러	-11.4418
▁2-0	-11.4418
▁송은범	-11.4418
▁이승현	-11.4418
▁4·13	-11.4418
▁안상수	-11.4418
▁악몽	-11.4418
▁꼴찌	-11.4419
▁스콧	-11.4419
▁추첨	-11.4419
▁칼럼	-11.4419
▁워싱턴포스트	-11.4419
▁초고층	-11.4419
▁수신료	-11.4419
▁잭슨	-11.4419
▁성전환자	-11.4419
▁탄핵심판	-11.4419
▁장성택	-11.4419
(57)	-11.4419
▁징후	-11.4419
▁육박	-11.4419
▁쿠바	-11.4419
▁욕망	-11.442
▁숙제	-11.442
▁유통업계	-11.442
▁계절	-11.442
▁네팔	-11.4421
▁박찬호	-11.4421
▁안타까워	-11.4421
▁순례	-11.4421
▁시교육청	-11.4421
▁재무장관	-11.4421
▁중소형주	-11.4422
▁학교폭력	-11.4422
▁배상문	-11.4422
▁동아	-11.4422
▁충청권	-11.4422
이번에	-11.4422
▁성취	-11.4423
▁특약	-11.4423
▁우울	-11.4425
▁6·15	-11.4425
▁입건	-11.4425
▁물러난	-11.4425
▁할아버지	-11.4426
▁1979	-11.4426
▁후퇴	-11.4426
▁예고편	-11.4427
▁떠안	-11.4428
▁갑판	-11.4428
▁발매	-11.4428
▁신축	-11.4428
▁빙수	-11.4429
▁문자메시지	-11.4429
▁상설	-11.4431
▁회담이	-11.4431
▁대학병원	-11.4431
▁엄정	-11.4432
(29	-11.4432
▁공산	-11.4432
▁유일하다	-11.4434
▁간절	-11.4435
▁이정현	-11.4435
▁뛴	-11.4436
▁로스앤젤레스	-11.4436
예요	-11.4437
▁잠수함	-11.4437
▁법사위	-11.4438
경기도	-11.4439
▁영화에서	-11.4439
▁일관성	-11.4439
▁소형화	-11.444
▁권오	-11.444
▁본보	-11.444
▁불행	-11.4441
▁욕구	-11.4441
▁경쟁에서	-11.4441
▁침수	-11.4443
▁사이코패스	-11.4443
▁올랑드	-11.4443
▁장기간	-11.4443
▁돌고래	-11.4443
▁결정은	-11.4444
▁자발적	-11.4444
▁설문	-11.4444
▁늘면서	-11.4446
▁실책	-11.4447
▁가맹점	-11.445
▁스웨덴	-11.445
▁이산화탄소	-11.445
▁할리우드	-11.445
▁오세훈	-11.445
▁상여금	-11.445
▁가파르	-11.4451
▁언급하지	-11.4451
(23·	-11.4451
▁기운	-11.4451
▁높아져	-11.4452
▁지능형	-11.4452
(25·	-11.4453
▁단단	-11.4453
▁등장했다	-11.4456
보전	-11.4457
▁태극기	-11.4457
▁나트륨	-11.4457
▁북방한계선	-11.4457
우주	-11.4458
▁녹취록	-11.4458
▁케냐	-11.4458
도움	-11.4459
▁장관급	-11.446
진영	-11.4461
▁사용했다	-11.4461
▁밝혀지	-11.4462
인구	-11.4463
▁경제협력개발기구	-11.4464
▁신세	-11.4466
▁살았다	-11.4467
(24·	-11.4468
▁꾸며	-11.4469
▁구미	-11.4469
▁예상치	-11.4474
▁등장한다	-11.4474
▁적발됐	-11.4476
▁액션	-11.4479
▁콩쿠르	-11.4479
▁커지자	-11.4481
▁연주회	-11.4481
▁생각은	-11.4482
▁노동계	-11.4483
타워	-11.4485
▁것만으로	-11.4485
▁반대해	-11.4488
▁책상	-11.4488
업종	-11.4489
▁기록물	-11.449
03	-11.4491
▁목표치	-11.4492
▁출연해	-11.4492
▁탱크	-11.4492
말로	-11.4494
▁안진	-11.4496
▁야기	-11.4496
SM	-11.4497
강에	-11.4497
▁음악회	-11.4498
▁메이저리그에서	-11.4498
▁개조	-11.4498
▁원천	-11.4499
▁이종걸	-11.45
▁공제	-11.4501
지사	-11.4502
▁기본계획	-11.4504
▁강구	-11.4506
▁참석자들은	-11.4506
▁심하게	-11.4508
▁사무	-11.4509
▁인물을	-11.4509
▁유기	-11.451
▁표현한	-11.4511
▁알았다	-11.4512
▁곰	-11.4514
▁구타	-11.4518
임에도	-11.4525
작품	-11.4525
▁박아무개	-11.4527
▁운영에	-11.4527
▁포르투갈	-11.4529
▁아이들에게	-11.4529
▁않는다면	-11.4532
▁사업단	-11.4534
▁항로	-11.4534
점수	-11.4537
여대	-11.4538
▁해결하기	-11.4538
▁인명	-11.454
▁단계적	-11.4542
▁인원이	-11.4544
늘	-11.4548
봐	-11.4549
▁결과적으로	-11.4557
▁확보하고	-11.4558
▁기다리는	-11.456
▁후보자에	-11.4561
하긴	-11.4563
▁저도	-11.4563
▁이송	-11.4564
아갈	-11.4565
파일	-11.4566
했죠	-11.4567
▁내리고	-11.4568
▁정보통신	-11.457
▁대조	-11.457
▁치유	-11.4571
예비	-11.4572
샘	-11.4572
▁동의했다	-11.4573
▁입에	-11.4574
시키겠다	-11.4574
▁털어놓	-11.4574
▁일로	-11.4576
웃	-11.458
▁교수팀	-11.458
▁고집	-11.4583
▁열자	-11.4584
▁97	-11.4584
▁압박했다	-11.4584
▁결집	-11.4585
▁재배	-11.4586
▁부산에서	-11.4593
▁유럽과	-11.4595
▁이르지	-11.4596
▁항공사들	-11.46
ed	-11.4601
논	-11.4602
▁감성	-11.4605
▁열렸	-11.4606
인들	-11.4608
▁기업으로	-11.4609
하냐	-11.4613
독재	-11.4613
▁감수	-11.4615
도발	-11.4615
업체들	-11.4615
우익	-11.4615
PGA	-11.4616
(18)	-11.4617
점검	-11.4617
▁인사로	-11.4618
OECD	-11.4619
▁길게	-11.4619
▁최근까지	-11.462
세이브	-11.462
KBO	-11.462
MBC	-11.4621
KIA	-11.4621
브랜드	-11.4621
▁은메달	-11.4624
국방부	-11.4626
합병	-11.4627
위안부	-11.4628
교육감	-11.4629
피해	-11.463
▁유지했다	-11.463
▁與	-11.4633
▁리바운드	-11.4636
▁맞붙는	-11.4636
▁증언이	-11.4638
▁고민이	-11.4639
▁키우고	-11.464
▁군이	-11.4641
▁개막한	-11.4643
동네	-11.4643
▁김재	-11.4645
타자	-11.4645
▁신원	-11.4652
▁요인이	-11.4652
▁나지	-11.4653
▁편향	-11.4654
▁제자	-11.4654
▁즐기는	-11.4655
▁전달한	-11.4656
▁다양	-11.4656
심판	-11.4657
▁해운	-11.4657
사관	-11.466
▁81	-11.4665
▁전공의	-11.467
착륙	-11.4672
▁기자와	-11.4674
EA	-11.4675
▁수사팀	-11.4677
▁엘리트	-11.4678
▁물자	-11.4679
▁공개하고	-11.468
▁보자	-11.4681
▁선정했다	-11.4681
▁센	-11.4681
▁나서지	-11.4683
▁강진	-11.4684
▁중심지	-11.4686
배우	-11.4686
공업	-11.4686
▁감소한	-11.4691
▁영향이	-11.4691
▁돼서	-11.4692
점에	-11.4695
▁중지	-11.4699
▁타석	-11.4708
▁내부에	-11.4708
▁교수로	-11.4708
▁900	-11.471
▁김해	-11.471
▁자원봉사자	-11.471
▁명으로	-11.4711
▁날개	-11.4712
▁증상을	-11.4713
전형	-11.4721
▁자금이	-11.4722
▁77	-11.4724
▁논의하고	-11.473
on	-11.4731
작은	-11.4731
▁인근에	-11.4732
▁일괄	-11.4734
▁폭발적	-11.4734
▁관장	-11.4739
렉	-11.4741
▁61	-11.4745
▁광화문광장	-11.4747
▁향하	-11.4747
잉	-11.4749
▁밀집	-11.475
▁추천한	-11.4752
▁풀리	-11.4753
▁깨끗	-11.4754
▁단편	-11.4756
민간	-11.476
▁한화와	-11.4761
▁정서적	-11.4761
▁국정감사	-11.4761
▁없었고	-11.4763
연구소장	-11.4764
▁시간대	-11.4764
▁다를	-11.4767
▁이것이	-11.4771
▁여기는	-11.4772
▁임박	-11.4774
1986	-11.4775
▁제왕	-11.4775
겨운	-11.4778
▁주권	-11.4781
극장에서	-11.4785
사법	-11.4788
▁원격의료	-11.4789
▁이전을	-11.4789
▁사랑하	-11.479
▁걸맞	-11.4792
시스	-11.4794
▁야구장	-11.4797
▁근본	-11.48
▁부드러	-11.4801
횡	-11.4802
▁보금자리주택	-11.4803
팽	-11.4803
듀	-11.4803
▁경제부총리	-11.4803
▁깨닫	-11.4803
▁덴마크	-11.4803
▁듣지	-11.4803
▁마드리드	-11.4803
▁만장일치	-11.4803
▁애리조나	-11.4803
▁어떠한	-11.4803
▁워크숍	-11.4803
▁읽기	-11.4803
▁임명동의안	-11.4803
▁청계천	-11.4803
▁플루토늄	-11.4803
▁황교안	-11.4803
倍	-11.4803
딛	-11.4803
▁신입생	-11.4803
▁정병국	-11.4803
▁가석방	-11.4803
▁펴냈	-11.4803
▁김광현	-11.4803
▁알제리	-11.4803
▁선제골	-11.4803
▁무더기	-11.4803
▁패널	-11.4803
▁행렬	-11.4803
리서치	-11.4803
▁방과후	-11.4803
▁인허가	-11.4803
▁비과세	-11.4804
▁다가온	-11.4804
(68)	-11.4804
▁이번주	-11.4804
▁면밀	-11.4804
▁인천공항	-11.4804
▁재보선	-11.4804
▁임대료	-11.4805
▁승격	-11.4805
▁석유공사	-11.4805
▁근본적	-11.4805
▁순익	-11.4805
▁되지만	-11.4806
▁언니	-11.4806
▁서대문구	-11.4806
▁회생	-11.4806
▁추징금	-11.4806
▁공통	-11.4807
▁지역으로	-11.4807
▁이한구	-11.4807
▁체질	-11.4807
▁키울	-11.4808
▁과반	-11.4808
(30	-11.4808
▁줄어들었다	-11.4809
▁강호동	-11.4809
▁입장권	-11.4809
▁민관	-11.4809
▁음모	-11.4809
▁경기지사	-11.481
▁1985	-11.481
▁정반대	-11.481
▁어색	-11.481
▁낮아졌다	-11.481
▁만료	-11.481
▁아이언	-11.481
▁컵스	-11.481
▁산림	-11.4811
▁있거나	-11.4811
▁배송	-11.4812
▁7~8	-11.4813
▁알려지면서	-11.4814
▁남북한	-11.4814
▁열망	-11.4814
▁국가대표팀	-11.4814
▁찾아왔다	-11.4815
▁투자은행	-11.4816
▁삼았다	-11.4816
▁계정	-11.4816
▁빼내	-11.4817
▁취재진	-11.4818
▁복직	-11.4819
▁늦어	-11.482
▁본토	-11.4821
▁정책과	-11.4821
▁경질	-11.4821
▁NIE	-11.4821
▁공직선거법	-11.4821
▁증여세	-11.4823
▁사임	-11.4823
▁환상	-11.4824
▁수행하	-11.4825
시키려	-11.4825
▁명창	-11.4825
▁지갑	-11.4825
▁승차	-11.4825
▁선호하	-11.4826
▁재확인했다	-11.4827
▁이뤄졌	-11.4827
▁제때	-11.4827
▁기재	-11.4827
▁어려웠다	-11.4827
▁유튜브	-11.4829
▁인센티브	-11.4829
▁아이스크림	-11.4829
▁여신	-11.4829
▁2·3	-11.483
▁대남	-11.4831
▁차종	-11.4831
▁포부	-11.4832
▁훈	-11.4833
▁달러를	-11.4833
▁외신들	-11.4834
▁회의에	-11.4836
-20	-11.4839
공주	-11.484
▁가공	-11.484
▁돌파구	-11.484
▁동대문	-11.484
▁김용	-11.484
...“	-11.484
(28·	-11.4841
▁개선될	-11.4843
▁확보하기	-11.4843
20)	-11.4843
▁호랑이	-11.4843
▁아일랜드	-11.4844
▁구경	-11.4845
▁돌아보	-11.4846
▁한숨	-11.4848
▁사진이	-11.4848
▁석권	-11.4849
▁유망주	-11.4849
▁세미나	-11.4851
▁미군기지	-11.4851
안에	-11.4851
▁화상	-11.4851
."(	-11.4852
▁청춘	-11.4853
▁등지에서	-11.4853
▁하나은행	-11.4853
▁발동	-11.4858
▁아바타	-11.4858
▁이상득	-11.4858
▁주식회사	-11.4859
▁사례는	-11.4859
▁나서서	-11.486
▁거래량	-11.486
▁e	-11.4863
▁듣는다	-11.4863
▁선점	-11.4864
▁섬유	-11.4864
▁중의원	-11.4865
▁국공립	-11.4866
▁시스템이	-11.4866
▁부모님	-11.4867
▁기내	-11.4869
▁퍼지	-11.4869
▁담보로	-11.487
▁대박	-11.4871
▁연임	-11.4874
..."	-11.4874
.4%)	-11.4874
▁소유권	-11.4876
▁불씨	-11.4879
▁99	-11.4879
▁76	-11.4879
은퇴	-11.488
▁못했지만	-11.4881
▁선정한	-11.4882
▁다지	-11.4883
▁무선	-11.4887
군과	-11.4888
▁제시하고	-11.489
0%)	-11.4896
순식	-11.4897
▁중국인들	-11.4897
▁빙	-11.4902
▁아티스트	-11.4903
▁검찰과	-11.4909
▁찍고	-11.4912
분경	-11.4914
~12	-11.4915
▁상고	-11.4916
▁제품에	-11.4916
설이	-11.4916
▁아카데미	-11.4917
▁생중계	-11.4919
▁검토한	-11.4922
▁유지해	-11.4925
브리	-11.4925
▁타임	-11.4926
해준	-11.4929
▁했습니다	-11.4935
협의	-11.4937
▁내사	-11.4937
▁팔리	-11.4938
▁IMF	-11.494
▁관료	-11.494
07	-11.4943
서니	-11.4946
▁그것이	-11.495
▁구원	-11.495
▁지고	-11.4952
▁웨이	-11.4952
그래	-11.4954
▁에이	-11.4957
▁급식	-11.4966
▁케	-11.4966
▁수반	-11.497
▁부수	-11.4972
▁사례로	-11.4973
▁기리	-11.4975
▁설치한	-11.4976
베이	-11.498
(25	-11.4983
이니	-11.4984
권이	-11.4987
8%)	-11.499
▁편법	-11.4991
▁오만	-11.4991
▁가속화	-11.4994
▁구성원	-11.5
외국	-11.5002
만달러를	-11.501
▁84	-11.5014
▁이강	-11.5015
▁중단된	-11.5015
냉	-11.5016
▁주요국	-11.5018
고속도로	-11.5018
金	-11.5018
들로부터	-11.5019
컴퓨터	-11.502
▁진도	-11.502
▁도전장	-11.5024
▁법안이	-11.5025
연습	-11.5027
계약서	-11.5028
▁주도했다	-11.5029
▁ICT	-11.5029
종목	-11.5031
▁방송에서	-11.5033
▁당국자들	-11.5033
친노	-11.5034
▁공간이	-11.5034
▁일반적인	-11.5035
친박	-11.5036
배가	-11.5036
▁남편과	-11.5036
특수	-11.5037
▁재연	-11.5038
번홀에서	-11.504
▁여부가	-11.5042
월드	-11.5042
▁상공	-11.5044
미술관에서	-11.5045
▁간접	-11.505
ce	-11.5052
연이어	-11.5058
친구	-11.5059
차피	-11.506
설계	-11.5061
전력	-11.5064
결제	-11.5067
▁규정이	-11.5067
주세요	-11.5068
방법	-11.5069
un	-11.507
▁유신	-11.5071
▁프로그램에	-11.5072
▁판결에	-11.5073
무리한	-11.5079
난다	-11.5079
▁강성	-11.5082
▁개선에	-11.5083
▁열도	-11.5083
en	-11.5088
▁콘	-11.5088
▁인물로	-11.5089
졌고	-11.5092
체로	-11.5095
▁서울에	-11.5097
▁단체전	-11.5097
▁값이	-11.5104
▁삼성에	-11.5105
▁얻지	-11.5106
군사적	-11.5114
집권	-11.5114
▁제공했다	-11.5114
여기	-11.5119
억엔	-11.512
함이	-11.5121
▁위반으로	-11.5126
▁상품이	-11.5131
▁힐	-11.5132
▁차가	-11.5135
▁이끌어내	-11.5136
▁고치	-11.514
▁건네	-11.5145
▁가늠	-11.5147
▁지사가	-11.5148
했거나	-11.515
▁의미로	-11.5155
명예	-11.5156
150	-11.5159
▁부상자	-11.5159
▁챙긴	-11.5164
▁우리에게	-11.5166
▁작용한	-11.5168
▁법대	-11.517
▁환경에	-11.517
▁간격	-11.517
▁조짐이	-11.5173
▁추경	-11.5178
랜	-11.518
홈쇼핑	-11.5181
▁이수	-11.5181
▁높인	-11.5181
▁죽어	-11.5185
▁태세	-11.5185
▁여행사	-11.5189
▁기승	-11.5189
릉	-11.5191
▁들어와	-11.5192
무라	-11.5192
▁미흡	-11.5196
▁다운	-11.5201
첼	-11.5202
▁상륙	-11.5202
웰	-11.5202
▁현안에	-11.5203
펑	-11.5203
▁넣고	-11.5203
▁대학수학능력시험	-11.5203
▁도곡동	-11.5203
▁돕고	-11.5203
▁매뉴얼	-11.5203
▁붙인	-11.5203
▁악영향	-11.5203
▁이스탄불	-11.5203
▁이튿날	-11.5203
▁일제강점기	-11.5203
▁케네디	-11.5203
▁톡톡	-11.5203
▁통틀어	-11.5203
▁펼칠	-11.5203
밋	-11.5203
▁경희대	-11.5203
▁상임고문	-11.5203
州	-11.5203
道	-11.5203
더군요	-11.5203
▁신지애	-11.5203
굿	-11.5203
▁심상정	-11.5203
▁황우여	-11.5203
海	-11.5203
▁무엇인가	-11.5203
▁전자우편	-11.5203
▁털어놨	-11.5203
▁국립극단	-11.5203
▁통상임금	-11.5203
사인	-11.5203
▁수시모집	-11.5203
▁노릇	-11.5203
▁징벌	-11.5203
▁프로배구	-11.5203
▁쇠고기	-11.5203
▁물밑	-11.5203
kW	-11.5203
▁애덤	-11.5203
▁개도국	-11.5203
▁고구려	-11.5203
▁집주인	-11.5204
▁쏟아냈다	-11.5204
▁강원랜드	-11.5204
▁송파구	-11.5204
▁척결	-11.5204
▁폐막	-11.5205
▁정보공개	-11.5205
▁추궁	-11.5205
▁법인카드	-11.5205
▁비박계	-11.5205
▁증가폭	-11.5206
▁저금리	-11.5206
▁서울시의회	-11.5206
▁탈환	-11.5206
▁우선순위	-11.5207
▁유혹	-11.5207
▁절실하다	-11.5207
석을	-11.5207
▁마찰	-11.5207
▁골프채	-11.5208
▁김종영	-11.5208
▁빈곤층	-11.5208
▁우승컵	-11.5209
▁부처님	-11.5209
▁찰스	-11.5209
화로	-11.5209
▁세계대전	-11.521
▁김치	-11.521
▁양궁	-11.521
▁올라왔다	-11.521
▁관철	-11.521
▁군사력	-11.521
▁합산	-11.521
▁1978	-11.5211
▁인지	-11.5211
▁급속히	-11.5212
▁도출	-11.5212
▁신중론	-11.5212
▁실었다	-11.5213
▁인정된다	-11.5214
▁타이어	-11.5214
▁뭘	-11.5214
▁성숙	-11.5214
급적	-11.5214
▁가져가	-11.5214
▁낙선	-11.5215
▁소화하	-11.5215
▁배당금	-11.5216
▁파병	-11.5216
했는데도	-11.5216
▁뽑혔다	-11.5216
승째	-11.5216
▁블로그	-11.5217
타운	-11.5219
▁예민	-11.5219
▁없었지만	-11.522
▁유망	-11.522
▁첫째	-11.522
▁급속	-11.5223
프트	-11.5226
▁이정수	-11.5227
2011	-11.5227
▁던져	-11.5227
▁통한다	-11.5228
▁꼽히	-11.5229
▁처지에	-11.5229
▁민정수석실	-11.523
▁재능기부	-11.523
▁절상	-11.523
▁졸업식	-11.5231
▁증거로	-11.5231
정부는	-11.5231
▁종식	-11.5231
▁나서기로	-11.5232
▁소신	-11.5233
▁늘리기로	-11.5233
▁찾아온	-11.5234
내셔널리그	-11.5236
운하	-11.5237
▁레스토랑	-11.5237
▁휘발유	-11.5237
▁문체부	-11.5237
▁도시재생	-11.5238
▁5·24	-11.5238
▁통신사	-11.5239
▁결승골	-11.524
▁중심이	-11.524
▁다행	-11.524
▁제약사	-11.524
▁공간에서	-11.5241
승호	-11.5241
250	-11.5241
▁서울시청	-11.5241
▁마신	-11.5241
미국의	-11.5242
▁야간	-11.5242
▁급증했다	-11.5242
▁기권	-11.5244
▁있나	-11.5245
▁한국야구위원회	-11.5245
▁대리점	-11.5245
▁그렸다	-11.5246
▁국방개혁	-11.5246
▁뛰어나다	-11.5247
▁기재부	-11.5248
▁종사자	-11.5249
▁자신과	-11.525
▁끼치	-11.525
▁그렇지만	-11.5252
▁슬픔	-11.5253
▁친인척	-11.5253
▁하이닉스	-11.5253
살인	-11.5253
만원대	-11.5254
▁사이버사	-11.5254
강화	-11.5256
▁시골	-11.5257
》	-11.5258
▁고려해야	-11.5258
▁국무회의에서	-11.526
▁영화관	-11.5262
▁연결된	-11.5264
▁지방세	-11.5265
경찰이	-11.5266
▁자정	-11.5267
▁알선	-11.5267
▁투수들	-11.5267
▁살아나	-11.5268
▁외화	-11.5268
▁반문	-11.5271
▁제조업체	-11.5271
▁재건	-11.5272
년대부터	-11.5273
소폭	-11.5273
▁몰린	-11.5273
▁말과	-11.5274
▁곳곳	-11.5274
올라	-11.5275
▁미세먼지	-11.5275
수학	-11.5276
▁IOC	-11.5276
▁진출이	-11.5276
▁주장과	-11.5278
▁유실	-11.5278
▁바뀐다	-11.5278
▁음악가	-11.5278
▁광주에서	-11.5283
▁노르웨이	-11.5284
▁확인해야	-11.5284
해냈다	-11.5285
▁안산시	-11.5286
▁펼친다	-11.5286
도지사	-11.529
▁아마추어	-11.5291
▁베이스	-11.5291
▁텍사스	-11.5292
▁제청	-11.5294
▁지역별로	-11.5301
대책위원회	-11.5302
▁학술지	-11.5303
▁산화	-11.5305
▁소요	-11.5306
▁참모들	-11.5306
▁놈	-11.5307
단계로	-11.5307
▁알았	-11.531
▁걸린다	-11.5311
신한	-11.5311
▁제기하고	-11.5312
▁다승	-11.5313
▁한전	-11.5314
롱	-11.5314
▁고속철도	-11.5316
▁거론되	-11.5316
▁공약이	-11.5317
▁세비	-11.5318
▁건물에	-11.5318
국립	-11.5318
▁전송	-11.5319
였습니다	-11.5319
▁쿠	-11.5325
▁올리지	-11.5326
▁극단적	-11.5327
▁언급했다	-11.5328
▁변호사들	-11.533
▁일산	-11.5331
▁간병	-11.5332
▁직원들에게	-11.5333
▁받았다는	-11.5333
▁남아있	-11.5335
▁필수적	-11.5337
호의	-11.5337
▁정무수석	-11.5338
디아	-11.5339
▁중간에	-11.5339
▁여력	-11.534
▁초선	-11.5341
▁서울지방경찰청	-11.5345
(23	-11.5345
▁지우	-11.5346
▁여주	-11.5351
▁주장해	-11.5351
골로	-11.5352
▁체인	-11.5355
주지	-11.5355
▁이뤄진다	-11.5358
카르	-11.5359
▁모의	-11.536
▁충족	-11.5361
▁대표팀에	-11.5363
▁직위	-11.5368
▁해변	-11.537
▁모습과	-11.5375
▁가르	-11.5377
▁목격	-11.5379
▁입성	-11.538
▁지원자	-11.5381
체가	-11.5385
▁강화해	-11.5385
대응	-11.5387
이므로	-11.5389
▁받아들여지	-11.5389
▁출연한	-11.5389
▁업주	-11.5391
▁파악해	-11.5392
▁국민적	-11.5399
▁주선	-11.54
2006	-11.54
▁장소에서	-11.5403
야스	-11.5405
-6	-11.5406
승우	-11.5409
▁소비자가	-11.5411
▁커지는	-11.5411
▁측과	-11.5411
서류	-11.5412
▁마운드에	-11.5412
수업	-11.5413
▁소비세	-11.5413
▁김연	-11.5414
▁배우고	-11.5415
▁중국산	-11.5417
그러	-11.5417
▁움직여	-11.542
정부의	-11.5421
협약	-11.5422
▁황제	-11.5423
몽	-11.5425
▁경쟁에	-11.5427
졸	-11.5428
관련기사	-11.543
▁변수로	-11.5431
봄	-11.5432
李	-11.5433
잇	-11.5433
ha	-11.5434
▁등산	-11.5434
▁이상화	-11.5435
낙동강	-11.5435
사이버	-11.5437
이스라엘	-11.5437
김정일	-11.5437
어머니	-11.5438
지방선거	-11.5439
문화방송	-11.5439
▁후회	-11.5443
▁시민의	-11.5443
문화재	-11.5444
▁받기도	-11.5446
창업	-11.5448
사퇴	-11.5448
생각	-11.5451
시켜야	-11.5453
강제	-11.5454
수익	-11.5455
▁베르	-11.5456
▁깎아	-11.5458
▁중단했다	-11.5461
▁메모리	-11.5461
▁0.1	-11.5464
▁산업부	-11.5464
▁타자로	-11.5464
총리	-11.5465
▁신청할	-11.5465
▁시절에	-11.5466
계를	-11.5469
원래	-11.547
▁투자해	-11.5472
▁출시된	-11.5472
▁공급이	-11.5473
▁업소	-11.5475
점포	-11.5476
국은	-11.5476
직원	-11.5478
▁제고	-11.5479
엑스	-11.5479
골프장	-11.5482
▁투자한	-11.5482
▁수준에서	-11.5482
▁집회에	-11.5482
▁소명	-11.5483
▁확정한	-11.5484
▁지불	-11.5488
▁남을	-11.549
타석	-11.5491
▁치우	-11.5491
▁최종전	-11.5493
▁위험성	-11.5494
께서	-11.5495
구로	-11.5495
▁대금	-11.5496
▁파악한	-11.55
▁확보하는	-11.5501
한국은	-11.5502
▁의상	-11.5503
아트	-11.5503
▁수퍼	-11.5505
▁시일	-11.5509
▁배경이	-11.5509
IB	-11.5512
▁출동	-11.5514
▁N	-11.5519
▁제작해	-11.5527
▁개발하고	-11.5527
참여	-11.553
▁관리에	-11.553
▁증권	-11.553
MS	-11.5531
▁생각이다	-11.5536
▁마련돼	-11.5547
▁포도	-11.5553
▁가시화	-11.5553
▁실시된	-11.5554
수정	-11.5555
is	-11.5555
▁조심	-11.5556
으로서는	-11.5557
▁가겠다	-11.556
▁종합해	-11.556
▁헤어	-11.5562
▁중립	-11.5564
▁지도부와	-11.5564
▁정치권이	-11.5567
▁싶었	-11.5568
▁충격이	-11.5573
▁실업률	-11.5573
럴	-11.5575
박사	-11.5576
▁가담	-11.5582
▁시설이	-11.5582
▁전체회의	-11.5582
▁결론이	-11.5584
▁하니	-11.5586
▁속도로	-11.5587
▁계열사들	-11.5589
▁평가하고	-11.559
겠습니다	-11.5592
▁해요	-11.5594
▁주춤	-11.5594
▁74	-11.5594
철학	-11.5595
▁방역	-11.5596
▁청소년들	-11.5597
▁임의	-11.5598
▁처장	-11.56
▁이례적인	-11.5603
▁서적	-11.5604
▁진위	-11.5605
▁운영할	-11.5606
▁했었다	-11.5609
드라	-11.561
▁제작에	-11.5612
▁밟았	-11.5612
▁답답	-11.5613
▁셋째	-11.5613
▁달해	-11.5615
젤	-11.5615
삭	-11.5618
덴	-11.5619
▁샌프란시스코	-11.5619
컴	-11.5619
펠	-11.562
代	-11.562
▁끊었다	-11.562
▁낮췄다	-11.562
▁눌렀다	-11.562
▁떠넘기	-11.562
▁밀입국	-11.562
▁법제사법위원회	-11.562
▁베스트셀러	-11.562
▁비슷해	-11.562
▁샴페인	-11.562
▁서울행정법원	-11.562
▁수돗물	-11.562
▁스캔들	-11.562
▁신혼부부	-11.562
▁쐐기	-11.562
▁엇갈렸	-11.562
▁읽힌다	-11.562
▁잣대	-11.562
▁좋고	-11.562
▁징크스	-11.562
▁청해진해운	-11.562
▁쿠데타	-11.562
▁트랙	-11.562
▁판문점	-11.562
▁퍼포먼스	-11.562
▁한목소리	-11.562
▁행정안전부	-11.562
政	-11.562
晋	-11.562
파이낸셜	-11.562
▁김신욱	-11.562
▁최종예선	-11.562
덧	-11.562
▁무너진	-11.562
▁수뇌부	-11.562
長	-11.562
▁아웃렛	-11.562
▁양적완화	-11.562
▁유희관	-11.562
▁구치소	-11.562
▁돌아다니	-11.562
▁켈리	-11.562
▁쪼개	-11.562
선승제	-11.562
▁김관진	-11.562
▁광범위	-11.562
▁루이스	-11.562
▁드라이버	-11.562
kWh	-11.562
▁캐럴	-11.562
▁롯데제과	-11.562
▁아이템	-11.562
▁논술고사	-11.562
▁터뜨린	-11.562
▁가르쳐	-11.562
▁트리오	-11.562
▁가까워	-11.562
▁서강대	-11.562
▁코엑스	-11.562
▁밀접	-11.562
▁일요일	-11.562
▁명예회장	-11.5621
▁세계문화유산	-11.5621
▁숨겨	-11.5621
▁퇴근	-11.5621
▁아우르	-11.5621
▁뛰어들었다	-11.5621
▁긴급조치	-11.5621
▁국정운영	-11.5621
▁최상위권	-11.5621
▁평화통일	-11.5622
▁표방하	-11.5622
▁신동주	-11.5622
▁순차적	-11.5622
▁레이저	-11.5622
▁경기침체	-11.5622
▁의사결정	-11.5622
▁친척	-11.5623
▁물고기	-11.5623
▁새끼	-11.5623
▁귀환	-11.5624
▁부검	-11.5624
▁지휘봉	-11.5624
▁과격	-11.5624
▁밀어내	-11.5624
▁로드	-11.5625
▁파손	-11.5625
▁계란	-11.5625
▁치명적	-11.5625
▁성찰	-11.5625
▁대접	-11.5626
▁선제적	-11.5626
▁나섰지만	-11.5626
▁난항	-11.5626
▁소총	-11.5626
▁통화정책	-11.5627
▁생물	-11.5627
▁망설	-11.5627
항쟁	-11.5627
▁기침	-11.5627
▁방출	-11.5628
▁조영	-11.5628
▁송출	-11.5628
▁성향이	-11.5629
▁순천	-11.563
▁산출	-11.563
▁원활	-11.563
▁멀	-11.5631
▁감추지	-11.5631
▁5~6	-11.5632
▁의총	-11.5632
책이	-11.5633
▁벗어났다	-11.5633
▁개표	-11.5634
▁반격	-11.5634
▁유충	-11.5634
▁막강	-11.5635
▁서른	-11.5636
▁사쪽	-11.5637
▁교과서에	-11.5638
▁내세웠다	-11.5638
▁있었을	-11.5638
▁호재	-11.5639
▁이정은	-11.5639
▁건국대	-11.564
▁원폭	-11.5641
▁우리은행	-11.5642
▁6~7	-11.5642
▁95%	-11.5643
▁자란	-11.5643
▁오브	-11.5644
▁엔화	-11.5645
공공	-11.5646
▁흰	-11.5647
▁최고위원회	-11.5647
▁길고양이	-11.5648
▁체호프	-11.5648
▁서예	-11.5649
▁증대	-11.5649
▁Y	-11.565
▁벽에	-11.565
▁용서	-11.565
▁동맹국	-11.5651
▁내부적으로	-11.5652
▁노트	-11.5652
▁금강	-11.5652
감사	-11.5653
▁맞선	-11.5654
▁국정화	-11.5655
살에	-11.5655
▁알아서	-11.5655
▁넷플릭스	-11.5656
▁끝낸	-11.5658
▁사용된	-11.5659
▁중단됐다	-11.5659
▁확고한	-11.566
▁사무처장	-11.566
▁기소됐다	-11.566
▁창의적	-11.5661
▁호전	-11.5661
▁내려진	-11.5662
▁변론	-11.5662
0.4%	-11.5662
(50	-11.5663
▁추진하기	-11.5663
▁아연	-11.5663
▁후보들이	-11.5664
▁크리스티	-11.5664
▁변함	-11.5665
▁자리였다	-11.5666
▁수입차	-11.5669
▁공소장	-11.567
▁세종	-11.5671
▁이재오	-11.5672
▁과거에	-11.5673
▁원한다	-11.5673
▁사망률	-11.5674
▁틀어	-11.5674
▁뛰었다	-11.5675
▁삼성전자와	-11.5677
▁행위에	-11.5677
▁정부조직법	-11.5679
▁하이브리드	-11.568
▁방식에	-11.5683
▁밝혔고	-11.5683
▁상장사	-11.5683
▁마련하겠다	-11.5684
이달	-11.5686
▁선진화	-11.5686
▁투표율	-11.5688
▁졸업하고	-11.569
▁착수했다	-11.5691
▁인지도	-11.5696
▁김장	-11.5696
▁않았는데	-11.5696
본다	-11.5697
▁전에는	-11.5697
▁전형적	-11.5698
▁공개됐다	-11.5698
전용	-11.5698
▁드러나지	-11.5699
▁건설업체	-11.57
▁분이	-11.57
▁기호	-11.57
놀라운	-11.5701
▁모습이었다	-11.5701
▁하려	-11.5704
공개	-11.5704
▁사용량	-11.5704
▁14%	-11.5704
▁평등	-11.5704
▁학교와	-11.5708
양국	-11.5709
▁91	-11.5709
▁벌어들	-11.5709
나마	-11.5712
▁생전	-11.5713
전통	-11.5715
▁상자	-11.5716
▁발레단	-11.5717
▁독일에서	-11.5717
▁전선	-11.5718
▁존재한다	-11.5721
▁댄스	-11.5729
▁순회	-11.5732
▁안병	-11.5735
at	-11.5736
▁의중	-11.5738
▁활기	-11.5738
▁일감	-11.5739
▁보이지만	-11.5742
▁입문	-11.5742
▁일으키고	-11.5742
▁배우는	-11.5743
▁드리	-11.5744
▁또래	-11.5744
국민카드	-11.5745
분까지	-11.5746
▁NH	-11.5748
여자	-11.5749
방위	-11.5751
▁가야사	-11.5752
▁살펴	-11.5753
▁이날까지	-11.5754
첩	-11.5755
▁속내	-11.5756
▁모형	-11.5759
분과	-11.576
▁올랐고	-11.5761
▁한화의	-11.5761
중국의	-11.5761
▁가졌	-11.5761
▁나누	-11.5761
▁시청률이	-11.5762
개나	-11.5763
▁벨트	-11.5763
들었다	-11.5763
▁올리기	-11.5766
▁김포	-11.5768
▁거야	-11.5773
▁창의	-11.5776
▁랩	-11.5776
▁이들과	-11.5777
▁제소	-11.578
국인	-11.5782
광양	-11.5782
▁들어올	-11.5789
용인	-11.5793
▁내줘	-11.5794
▁맡을	-11.5795
▁개선이	-11.5797
▁의원직	-11.5798
▁쥐고	-11.5798
▁얼굴에	-11.5799
▁요인으로	-11.5799
▁79	-11.5799
타이	-11.5801
▁105	-11.5802
해당	-11.5803
▁투수로	-11.5804
▁저서	-11.581
▁단계에서	-11.5811
▁완성도	-11.5816
가능	-11.5817
▁기대에	-11.5819
▁잡히	-11.5823
▁결과물	-11.5824
▁조사는	-11.5826
▁검토하겠다	-11.5826
앞	-11.5828
어린	-11.5836
단연	-11.5838
바다	-11.5838
co	-11.5849
▁딸이	-11.5849
▁날아	-11.5849
▁위험에	-11.585
교대	-11.5851
▁셀	-11.5853
조리	-11.5854
▁중계	-11.5854
▁협력해	-11.5862
▁취업을	-11.5862
임금	-11.5866
▁정보원	-11.5867
▁고성	-11.5869
가디언	-11.587
갤럭시	-11.587
고등학교	-11.5871
꼭	-11.5872
▁초까지	-11.5872
도서관	-11.5874
삼성전자	-11.5874
우리나라	-11.5875
타임스	-11.5876
▁부부가	-11.5877
▁당선된	-11.5877
▁무라	-11.5878
▁검사는	-11.588
재벌	-11.5882
손해보험	-11.5883
▁같다고	-11.5889
완전	-11.5889
▁외부에	-11.5892
코드	-11.5892
근무	-11.5895
▁걸림돌이	-11.5895
▁가자	-11.5901
▁선수협	-11.5904
▁힘으로	-11.5906
▁사망했다	-11.5906
일본의	-11.5906
▁조리	-11.5909
▁원점	-11.5912
조에	-11.5914
▁인상에	-11.5915
▁시도한	-11.5915
▁경쟁사	-11.5917
▁기술로	-11.5918
▁국가안보	-11.5921
▁프로그램은	-11.5923
▁고속	-11.5927
한미	-11.5931
▁타인	-11.5932
▁정진	-11.5932
▁삼는	-11.5933
격인	-11.5937
▁피할	-11.5937
▁독립운동	-11.5939
▁아끼	-11.5942
▁직원과	-11.5942
▁도입하는	-11.5943
▁재활용	-11.5944
2007	-11.5945
대비	-11.5947
▁극도	-11.5949
▁기여한	-11.595
▁입구	-11.5951
▁장타	-11.5952
▁적용되	-11.5952
조원에	-11.5961
▁끼친	-11.5965
키스	-11.5972
▁유서	-11.5973
선언	-11.5973
였으나	-11.5973
▁반영하는	-11.5973
▁평소에	-11.5974
▁강화했다	-11.5974
공군	-11.5975
여러	-11.5976
▁전남도	-11.5979
곳과	-11.5979
기관인	-11.5982
▁벨	-11.5985
▁의뢰해	-11.5985
속도	-11.5985
▁이원	-11.5986
현상	-11.5989
▁계획에	-11.599
지방법원	-11.5994
▁의무가	-11.5994
.》	-11.5995
▁경남도	-11.6001
▁“5	-11.6002
▁느낀	-11.6006
▁때면	-11.6006
▁극단주의	-11.6006
LA	-11.6014
▁적합	-11.602
▁무시한	-11.6023
▁메리	-11.6025
조약	-11.6027
▁재확인	-11.6027
▁장례식	-11.603
▁학회	-11.6031
개사	-11.6033
럽	-11.6036
▁우회	-11.6036
두고	-11.6038
▁내장	-11.6038
▁온다	-11.6042
▁쉽다	-11.6043
▁고로쇠	-11.6043
▁역설	-11.6048
성호	-11.6049
넷	-11.6051
렀	-11.6052
▁특별수사	-11.6053
칼텍스	-11.6054
팩	-11.6054
性	-11.6054
▁꺾어	-11.6054
▁당협위원장	-11.6054
▁리우데자네이루	-11.6054
▁무바라크	-11.6054
▁바뀌고	-11.6054
▁바뀌는	-11.6054
▁방송통신위원회	-11.6054
▁베토벤	-11.6054
▁부드럽	-11.6054
▁순환출자	-11.6054
▁숭례문	-11.6054
▁스텔스	-11.6054
▁쏘아	-11.6054
▁알카에다	-11.6054
▁앞섰다	-11.6054
▁오픈프라이머리	-11.6054
▁유흥업소	-11.6054
▁재밌	-11.6054
▁직권상정	-11.6054
▁청룡기	-11.6054
▁최희섭	-11.6054
▁항산화	-11.6054
▁헝가리	-11.6054
男	-11.6054
習近平	-11.6054
됩니다	-11.6054
▁농어촌	-11.6054
▁덕수궁	-11.6054
▁송유관	-11.6054
▁안종범	-11.6054
▁태블릿	-11.6054
西	-11.6054
▁동남아시아	-11.6054
▁받아들였다	-11.6054
稅	-11.6054
▁소나타	-11.6054
東	-11.6054
▁오사카	-11.6054
▁정찰총국	-11.6054
▁강민호	-11.6054
▁한국여자프로골프	-11.6054
▁소셜미디어	-11.6054
▁재정적자	-11.6055
▁그래핀	-11.6055
▁호기심	-11.6055
▁디젤	-11.6055
▁아닐까	-11.6055
▁근접	-11.6055
▁형사처벌	-11.6055
▁터뜨려	-11.6055
으므로	-11.6055
▁공공부문	-11.6055
▁노트북	-11.6055
▁세무조사	-11.6055
▁여배우	-11.6055
▁준우승	-11.6055
▁충주	-11.6056
▁여자친구	-11.6056
▁음향	-11.6056
▁탐색	-11.6056
(63)	-11.6056
▁청구소송	-11.6056
▁몰락	-11.6056
▁단원	-11.6056
▁시간강사	-11.6057
▁척추	-11.6057
▁계류	-11.6057
▁산사태	-11.6057
▁정규시즌	-11.6057
▁가혹	-11.6057
▁폭풍	-11.6057
▁말하고	-11.6057
▁막혀	-11.6057
▁원자재	-11.6058
▁법정관리	-11.6058
▁행동에	-11.6058
법적	-11.6058
▁잔디	-11.6059
▁창설	-11.6059
▁웨이보	-11.6059
▁자부심	-11.6059
▁살짝	-11.606
▁무관심	-11.606
▁불투명하다	-11.606
▁식량	-11.606
▁거둘	-11.606
▁허락	-11.606
월스트리트	-11.6061
▁거론된다	-11.6061
개월이	-11.6061
▁지켜본	-11.6061
▁모텔	-11.6061
▁업체인	-11.6061
억유로	-11.6062
▁유료	-11.6062
▁테러범	-11.6063
▁삼성카드	-11.6063
▁사옥	-11.6063
▁부작용이	-11.6063
▁치러야	-11.6064
▁분명하다	-11.6064
▁퇴원	-11.6065
개월째	-11.6065
▁면모	-11.6065
▁간섭	-11.6065
▁정치개혁	-11.6065
▁죽었다	-11.6065
▁도왔다	-11.6065
▁드문	-11.6066
▁돌려주	-11.6066
▁외교정책	-11.6067
▁효성	-11.6067
▁학비	-11.6067
▁제휴	-11.6067
▁색조	-11.6068
▁방학	-11.6069
테크	-11.6069
▁벌금형	-11.6069
▁초상화	-11.6069
▁극우	-11.6069
▁키운	-11.6069
대체	-11.607
▁송구	-11.607
▁지속될	-11.607
▁3·15	-11.6071
▁섬세	-11.6071
▁심각하다	-11.6071
▁무력화	-11.6071
▁두드리	-11.6072
줘야	-11.6072
▁징역형	-11.6073
▁총력전	-11.6073
▁발생했	-11.6073
▁발병	-11.6073
▁살포	-11.6075
▁몰렸다	-11.6076
▁실명	-11.6076
충동	-11.6076
▁부산지역	-11.6076
▁다니던	-11.6077
▁무난	-11.6077
▁바꾸지	-11.6077
▁싸우	-11.6077
▁치아	-11.6077
▁골든	-11.6078
▁알파고	-11.6078
▁강변	-11.6079
▁웹	-11.6079
▁임종	-11.608
▁부착	-11.608
▁사설	-11.6082
▁포함시키	-11.6082
▁회화	-11.6083
▁악수	-11.6083
▁드래프트	-11.6084
▁양해각서	-11.6084
▁직권남용	-11.6084
▁잠실구장	-11.6084
▁특검팀	-11.6085
▁자질	-11.6086
▁어른들	-11.6086
▁책무	-11.6088
WP	-11.6088
▁흠	-11.609
▁주도해	-11.6091
▁한국형	-11.6092
▁노무	-11.6092
▁초소형	-11.6092
▁났	-11.6093
▁카이로	-11.6093
▁중시하는	-11.6094
의혹	-11.6094
▁그릇	-11.6094
▁대본	-11.6095
해양	-11.6095
▁가드	-11.6097
▁이석	-11.6097
▁번영	-11.6099
▁도피	-11.6099
▁공사비	-11.61
▁특목고	-11.61
▁시의원	-11.6101
기문	-11.6101
▁혁신도시	-11.6103
▁사재	-11.6103
▁없다면	-11.6104
▁바젤	-11.6104
▁허브	-11.6105
▁상무부	-11.6107
▁부문에	-11.6108
▁썩	-11.6108
▁정상이	-11.6108
▁등판해	-11.6109
▁크루즈	-11.6109
▁카이스트	-11.6109
▁주무	-11.611
▁영주	-11.6111
▁자신만	-11.6111
▁연관성	-11.6111
경제적	-11.6113
▁넘어야	-11.6113
▁부른다	-11.6113
▁양적	-11.6114
▁커진다	-11.6114
▁발굴해	-11.6115
▁이석기	-11.6115
스코	-11.6115
▁풀고	-11.6115
▁다르지	-11.6116
▁주행	-11.6117
▁전체회의에서	-11.6118
▁소개한다	-11.6124
▁행사에는	-11.6126
▁탈모	-11.6127
▁안쪽	-11.6127
허가	-11.6128
▁상황으로	-11.6129
ol	-11.613
▁간호	-11.6131
▁구단이	-11.6133
▁신장	-11.6134
▁KAIST	-11.6134
▁환경단체	-11.6134
▁쌓여	-11.6134
(21	-11.6135
지리	-11.6135
▁유치원	-11.6135
▁강좌	-11.6135
▁중증	-11.6135
▁아무개	-11.6137
▁모드	-11.6137
▁보아	-11.6139
▁예측했다	-11.614
▁성공률	-11.614
▁업적	-11.6142
▁수직	-11.6143
▁대학들	-11.6144
~6	-11.6144
▁운영비	-11.6144
▁사회당	-11.6145
▁신공항	-11.6145
▁11%	-11.6145
▁확	-11.6146
(29·	-11.6148
▁부속	-11.615
▁성완종	-11.6151
▁편하게	-11.6154
▁정당화	-11.6154
▁건전성	-11.6155
▁사태와	-11.6155
▁되며	-11.6156
▁명분으로	-11.6157
▁어디에	-11.6158
▁106	-11.6158
▁실시했다	-11.6159
▁참가자들	-11.6159
▁박람회	-11.6159
▁중이며	-11.616
▁다양성	-11.616
▁창조경제	-11.6161
▁소극장	-11.6161
▁다양하	-11.6162
단속	-11.6166
▁상시	-11.6167
▁시기는	-11.617
▁승률	-11.617
▁층	-11.6171
▁살아가	-11.6172
▁했는지	-11.6174
▁의존도	-11.6174
▁강연에서	-11.6177
▁다음주	-11.6177
5%)	-11.6178
▁대학원	-11.618
유세	-11.618
해줬	-11.6182
▁기분이	-11.6184
▁흔한	-11.6187
다시	-11.6188
▁구형	-11.6192
▁불안감이	-11.6193
▁예술가	-11.6196
시키	-11.6197
▁나오기	-11.6197
▁소원	-11.6199
▁계획은	-11.62
▁전방	-11.62
▁시민단체들	-11.62
▁바닥에	-11.6203
포항	-11.6203
▁대권	-11.6204
▁거리에	-11.6206
▁기수	-11.6208
화성	-11.6208
보증	-11.6208
▁실점	-11.6209
▁팝	-11.621
▁소매	-11.6212
▁반영되	-11.6212
▁등반	-11.6217
▁전문의	-11.6218
▁실질	-11.6219
미국이	-11.622
▁제자들	-11.6222
~5	-11.6222
▁오어	-11.6222
▁법에	-11.6223
▁대결에서	-11.6223
▁그와	-11.6227
▁일이었다	-11.6237
위원회에서	-11.624
건설은	-11.624
인재	-11.6242
위다	-11.6243
▁표출	-11.6246
▁짝	-11.6248
▁이긴	-11.6251
▁출전하지	-11.6252
▁겨	-11.6252
▁정치에	-11.6253
▁대원	-11.6253
▁표현했다	-11.6258
▁구성하고	-11.6261
▁8%	-11.6263
▁조사하고	-11.6265
▁탐	-11.6266
▁숙박	-11.6267
▁월드	-11.627
▁하다가	-11.6271
▁던지고	-11.6274
▁의식해	-11.6274
850	-11.6277
기계	-11.6278
▁이해하는	-11.628
▁민사	-11.6281
∼10	-11.6281
▁220	-11.6283
▁지방선거에서	-11.6283
▁신도시	-11.6285
▁부모와	-11.6287
▁차명	-11.6288
▁세우기	-11.6291
짜	-11.6294
▁잇	-11.6295
▁이천	-11.6299
▁내겠다	-11.6299
▁가정의	-11.6299
▁서민들	-11.6301
▁그쳤	-11.6304
수리	-11.6306
▁연기했다	-11.6307
▁조치로	-11.6308
연설	-11.6308
▁물질이	-11.6308
▁측면에서	-11.6308
사이트	-11.6309
민주당이	-11.6309
▁내걸었	-11.6311
행복	-11.6314
▁마케팅에	-11.6315
델	-11.6315
▁출마한	-11.6315
뜨	-11.6317
▁참석하기	-11.6318
▁쪽과	-11.6318
韓	-11.6319
멜	-11.6319
▁대응해	-11.6322
요원	-11.6323
에스비에스	-11.6324
걸음	-11.6324
갤러리	-11.6325
(27	-11.6325
흔	-11.6325
디지털	-11.6326
▁잠수	-11.6326
▁휴대전화를	-11.6326
브라질	-11.6326
샷	-11.6326
클래식	-11.6326
메르스	-11.6328
▁지켜봐	-11.633
AI	-11.6331
함께	-11.6331
▁거기	-11.6333
된다면	-11.6338
보상	-11.6338
▁친구들이	-11.6338
나와	-11.6339
▁서한	-11.634
모토	-11.6345
▁사이트에서	-11.6347
기념	-11.6348
▁l	-11.6348
긴급	-11.635
심의	-11.6353
정식	-11.6356
▁제외하면	-11.6356
재난	-11.6359
자사고	-11.636
▁수강	-11.6362
▁동메달	-11.6362
▁거둬	-11.6363
▁추위	-11.6365
▁조던	-11.6366
▁운영되	-11.6367
▁청소년들이	-11.6367
공약	-11.6371
▁청문회에서	-11.6372
점프	-11.6372
시흥	-11.6375
▁타자들	-11.6376
▁끝내고	-11.6377
건축	-11.6378
▁안심	-11.6382
▁조금이	-11.6383
▁했기	-11.6384
▁비용으로	-11.6385
▁스키	-11.6387
▁힘들었	-11.6391
기까지	-11.6393
했으니	-11.6397
리스트	-11.64
▁자랑하	-11.64
▁소유한	-11.6403
▁정권에	-11.6405
1981	-11.6407
비용을	-11.6408
였는데	-11.6408
연출	-11.6408
세종	-11.6409
니아	-11.6411
▁기대하는	-11.6411
▁사용되는	-11.6412
복원	-11.6416
▁빼앗	-11.6416
▁전수	-11.6417
▁표기	-11.6418
▁여겨	-11.6424
준호	-11.6424
ea	-11.6427
▁제품으로	-11.6427
▁싫어	-11.6429
의무적으로	-11.643
▁인가	-11.6435
영화제	-11.6436
만원까지	-11.6437
(81	-11.6437
절대	-11.6438
최대	-11.644
▁내밀	-11.644
개입	-11.644
▁연결해	-11.6443
▁난방	-11.6445
▁전략이	-11.6451
▁하반기에	-11.6454
▁발사에	-11.6454
▁곤란	-11.6454
▁넥슨	-11.6458
▁지향	-11.6458
병석	-11.6461
▁솔	-11.6462
▁표현이	-11.6462
▁넘나	-11.6463
▁인문	-11.6464
▁트레	-11.6466
▁발견한	-11.6466
▁즐겁	-11.647
ro	-11.6473
▁수임	-11.6475
▁접근하	-11.6476
회복	-11.6477
화하는	-11.6481
실제	-11.6482
▁이유에	-11.6486
▁커진	-11.6486
▁게시판에	-11.6486
뢰	-11.6487
▁가시	-11.6489
자격	-11.6493
틱	-11.6496
▁접목	-11.6496
▁운송	-11.6497
▁낙찰	-11.65
▁돌리는	-11.6501
▁안고	-11.6502
놨	-11.6503
놔	-11.6503
▁신흥	-11.6505
▁동지	-11.6505
▁등판한	-11.6506
콤	-11.6506
▁기준은	-11.6507
▁캠코	-11.6508
노믹스	-11.6508
현주	-11.6508
▁빨간	-11.6508
▁미래에	-11.6509
긍	-11.6509
엉	-11.6509
▁개발도상국	-11.6509
▁걷는	-11.6509
▁곤두세우	-11.6509
▁낸드플래시	-11.6509
▁리허설	-11.6509
▁맞물려	-11.6509
▁벙커	-11.6509
▁봅슬레이	-11.6509
▁붙는	-11.6509
▁사도세자	-11.6509
▁싣고	-11.6509
▁싶습니다	-11.6509
▁않더라도	-11.6509
▁오토바이	-11.6509
▁햇빛	-11.6509
▁현대오일뱅크	-11.6509
軍	-11.6509
겔	-11.6509
▁도우미	-11.6509
▁임창용	-11.6509
▁천천히	-11.6509
AFP	-11.6509
▁아이스하키	-11.6509
▁제철소	-11.6509
▁트로피	-11.6509
덩어리	-11.6509
▁미국여자프로골프	-11.6509
▁야스쿠니신사	-11.6509
▁조형물	-11.6509
▁내보내	-11.6509
▁물갈이	-11.6509
▁UBS	-11.6509
▁데이비스	-11.6509
지속가능한	-11.6509
▁10·26	-11.6509
▁우대금리	-11.6509
▁전창진	-11.6509
▁슈팅	-11.6509
▁02-	-11.6509
▁여럿	-11.6509
▁체납	-11.6509
▁사법시험	-11.6509
▁출국금지	-11.6509
▁농축	-11.6509
▁오재일	-11.6509
▁공정무역	-11.6509
▁성직자	-11.651
▁부총재	-11.651
▁충원	-11.651
▁수원지법	-11.651
▁여동생	-11.651
▁회고록	-11.651
▁통행료	-11.651
▁무겁	-11.651
▁홍보수석	-11.651
▁노골적	-11.651
(61)	-11.651
▁재조명	-11.651
▁여성가족부	-11.651
▁SAP	-11.651
▁양천구	-11.651
(65)	-11.651
▁가닥	-11.6511
▁축구대표팀	-11.6511
(70)	-11.6511
▁대선개입	-11.6511
▁흠집	-11.6511
▁예정이었으나	-11.6511
▁신인왕	-11.6511
▁보잉	-11.6511
▁부동층	-11.6512
탈삼진	-11.6512
▁개인종합	-11.6512
▁가이드	-11.6513
▁신앙	-11.6513
▁동대문구	-11.6513
▁부응	-11.6514
▁중견	-11.6514
II	-11.6514
▁합창단	-11.6514
▁경기회복	-11.6514
▁신념	-11.6514
▁점과	-11.6514
▁에세이	-11.6515
▁입소문	-11.6515
▁수상작	-11.6515
▁국민투표	-11.6516
▁라이스	-11.6516
▁북한대사관	-11.6516
▁외출	-11.6516
하길	-11.6516
▁대출금리	-11.6516
▁추후	-11.6517
▁킹	-11.6517
MW	-11.6517
▁한국전력	-11.6519
▁가축	-11.6519
▁걸까	-11.6519
▁덕분이다	-11.652
▁소액	-11.652
▁민간기업	-11.652
▁서울대병원	-11.652
▁여백	-11.652
▁하위권	-11.652
▁사실관계	-11.6521
▁보충	-11.6521
▁과열	-11.6521
▁악보	-11.6521
주당	-11.6521
▁테마주	-11.6522
▁이론	-11.6522
▁코스타리카	-11.6522
▁든든	-11.6523
▁중단하라	-11.6523
▁공동위원장	-11.6523
▁영감	-11.6523
▁연례	-11.6523
▁기다렸다	-11.6524
▁구출	-11.6525
▁마음대로	-11.6525
▁최고령	-11.6525
▁패소	-11.6526
▁당대표	-11.6526
▁고등	-11.6526
▁기조연설	-11.6527
코트	-11.6527
▁김효주	-11.6528
▁영리	-11.6529
▁김효	-11.6529
▁푸조	-11.6529
싸	-11.653
응답하라	-11.653
▁밝혀내	-11.653
▁무패	-11.653
▁발발	-11.653
▁홍명보	-11.653
▁출입문	-11.6532
▁불복	-11.6532
▁노동시간	-11.6533
▁동요	-11.6533
▁박지은	-11.6534
▁뜨겁다	-11.6535
▁완승	-11.6535
▁숨어	-11.6537
▁유적	-11.6538
▁두께	-11.6538
▁존스	-11.6538
▁격상	-11.6538
해지면서	-11.6539
하겠습니다	-11.6539
▁국정농단	-11.654
▁농산물	-11.654
▁송전탑	-11.654
▁들어설	-11.654
▁담임	-11.6541
▁누구보다	-11.6541
▁성과급	-11.6541
▁이럴	-11.6542
▁운영해	-11.6542
▁돌아선	-11.6543
▁주겠다	-11.6543
▁가출	-11.6544
러스	-11.6544
▁체포됐다	-11.6544
▁교전	-11.6546
(27·	-11.6546
전기	-11.6547
▁들어오	-11.6547
▁주입	-11.6547
▁가정에	-11.6548
▁스승	-11.6548
▁비디오	-11.6548
▁프랜차이즈	-11.6548
▁승리한	-11.6549
하므로	-11.655
▁치료비	-11.6551
▁장난	-11.6556
▁포퓰리즘	-11.6557
▁매니저	-11.6557
▁스타트업	-11.6558
▁많지만	-11.6558
▁신종	-11.6558
▁이식	-11.6559
▁해설	-11.6561
▁모교	-11.6564
▁구속했다	-11.6564
▁뒤지	-11.6566
큼	-11.6566
▁김상곤	-11.6567
▁들어선다	-11.6572
▁의원총회에서	-11.6573
▁특혜를	-11.6574
▁유연성	-11.6575
▁구속기소	-11.6575
▁선율	-11.6575
▁빠지지	-11.6576
▁아우	-11.6577
▁‘2015	-11.6577
오르	-11.6578
▁현대카드	-11.6578
▁탐구	-11.6579
▁여자부	-11.6581
패스	-11.6582
▁해방	-11.6583
▁호텔에서	-11.6583
▁오프라인	-11.6584
▁낭송	-11.6584
▁맞대	-11.6585
일단	-11.6585
▁업체와	-11.6585
▁역사관	-11.6585
▁금전	-11.6586
▁차지할	-11.6586
투어에서	-11.6587
싸이	-11.6588
▁외환	-11.6588
▁개선하기	-11.6588
당장	-11.6589
▁먹기	-11.6591
▁중부	-11.6592
▁용도로	-11.6593
월께	-11.6594
▁양심	-11.6595
▁소속인	-11.6598
▁연안	-11.6599
▁가두	-11.6599
▁행사할	-11.66
▁옵션	-11.66
▁협주곡	-11.6601
▁참여하지	-11.6604
▁최고위원회의에서	-11.6605
사령관	-11.6606
▁남들	-11.6608
▁당당	-11.6609
▁전체적으로	-11.6609
▁울산시	-11.661
▁기준치	-11.6615
▁이해하기	-11.6615
▁선보	-11.6615
▁최고위원회의	-11.6618
▁갓	-11.6619
▁형편	-11.662
▁발생하고	-11.6621
▁돌리고	-11.6622
▁혹시	-11.6622
▁발부	-11.6623
▁치러지	-11.6623
▁공지	-11.6624
▁농사	-11.6625
▁종목에	-11.6625
▁NSC	-11.6628
▁압박해	-11.6629
▁단계로	-11.663
▁방침에	-11.6631
04	-11.6633
▁명도	-11.6633
▁살리는	-11.6633
▁‘10	-11.6633
▁부재	-11.6636
▁당국에	-11.6636
▁사건에서	-11.664
▁설명하는	-11.6641
▁의결했다	-11.6642
▁평론가	-11.6655
홍보	-11.6656
▁탄생한	-11.6656
▁움직이고	-11.6658
▁관련해선	-11.6658
▁독성	-11.6659
▁혼다	-11.6661
▁박성	-11.6661
▁법원에서	-11.6665
▁수여	-11.6667
▁결정한다	-11.6671
▁도루	-11.6675
▁신관	-11.6677
▁6%	-11.6678
▁걸림돌	-11.6678
병수	-11.6681
▁나가겠다	-11.6681
▁안된다	-11.6683
▁외고	-11.6685
▁측에서	-11.6686
▁올라오	-11.6687
▁고민하고	-11.6687
▁요청할	-11.6688
▁안정성	-11.6689
▁대부	-11.669
▁일하다	-11.6694
▁조정한	-11.6699
리치	-11.67
▁이윤	-11.6701
le	-11.6702
▁도전한다	-11.6704
▁군인들	-11.6704
▁막지	-11.6704
▁비박	-11.6705
▁정현	-11.6706
▁마무리했다	-11.6707
▁만성	-11.6707
▁북한산	-11.6709
기사	-11.6709
▁맞추기	-11.6713
▁전달하고	-11.6713
토론회	-11.6714
▁인하대	-11.6718
▁도지사	-11.6721
▁96	-11.6725
나도	-11.6725
▁이기는	-11.6727
▁당권	-11.6732
▁언론이	-11.6739
▁하기도	-11.6739
▁일정이	-11.6739
▁걸로	-11.674
나간	-11.6745
상금	-11.6745
▁급감	-11.6747
▁있음	-11.6749
▁규정했다	-11.675
▁결정되	-11.6751
▁설치하고	-11.6751
▁티브이	-11.6753
조선소	-11.6754
▁들며	-11.6755
▁국가적	-11.6761
▁해결에	-11.6762
▁과천	-11.6768
▁분야로	-11.6768
▁촉구하고	-11.6769
재영	-11.6775
아쉬운	-11.6777
선수권	-11.6784
▁휩쓸었	-11.6784
플러스	-11.6785
▁행사에서	-11.6793
▁반대를	-11.6794
女	-11.6795
▁활용하고	-11.6796
2.8%	-11.6796
▁금지된	-11.6797
바닥	-11.6797
기구인	-11.6799
CIA	-11.6801
띠	-11.6801
벗	-11.6801
SBS	-11.6802
시진핑	-11.6802
국에서	-11.6802
▁외국어	-11.6802
바둑	-11.6803
LH	-11.6803
CCTV	-11.6803
콘서트	-11.6803
프로야구	-11.6803
▁시민이	-11.6803
김대중	-11.6803
마케팅	-11.6804
▁만나면	-11.6804
혁신과	-11.6806
진흥	-11.6806
청사	-11.6808
트라	-11.681
효율	-11.6812
수도권	-11.6813
2005	-11.6814
▁관심도	-11.6815
▁화면이	-11.6816
법인세	-11.6819
▁참석한다	-11.6821
문항	-11.6822
▁개입한	-11.6823
▁초에	-11.6823
5.4%	-11.6824
영업	-11.6824
▁위주	-11.6825
▁해준다	-11.6826
▁전년도	-11.6826
▁자치	-11.6832
▁드러나고	-11.6835
선택	-11.6837
▁86	-11.6839
내역	-11.684
정치권	-11.684
마크	-11.6841
2.4%	-11.6845
▁제어	-11.6846
▁발생하지	-11.6846
▁전학	-11.685
언어	-11.685
▁연계해	-11.6851
▁먹지	-11.6854
▁뿌려	-11.6857
연기	-11.6857
▁이유에서	-11.6857
▁실사	-11.687
▁수출이	-11.687
▁헌	-11.6871
▁작곡	-11.6872
▁납	-11.6874
▁벌이기	-11.6879
▁자가	-11.6881
▁둘이	-11.6882
▁몰리는	-11.6883
매치	-11.6883
▁인근에서	-11.6883
▁웃으	-11.6884
불리	-11.6888
▁장수	-11.689
자율	-11.689
▁스파이	-11.689
청장	-11.6891
급식	-11.6891
▁여건이	-11.6892
▁측근들	-11.6893
▁형이	-11.6895
▁소방차	-11.6896
▁시켜	-11.6896
편집	-11.6901
▁영도	-11.6902
▁자체에	-11.6903
현실	-11.6904
재철	-11.6905
▁채택한	-11.6908
1969	-11.6908
▁선두에	-11.6911
령을	-11.6912
▁찾아오	-11.6914
영재	-11.6914
▁모으	-11.6914
남편	-11.6914
▁달이	-11.6916
LS	-11.6916
▁법무	-11.6917
주요	-11.6919
-7	-11.692
▁의원총회	-11.6921
(42	-11.6924
▁서울광장	-11.6924
▁족	-11.6925
룩	-11.6925
▁총회에서	-11.6926
▁귀농	-11.6927
▁예로	-11.6927
▁남성들	-11.693
론자	-11.6931
▁되면서	-11.6931
▁시점에서	-11.6933
스쿨	-11.6935
▁금지한	-11.6937
▁허술	-11.694
▁교육감이	-11.6941
▁이뤄지고	-11.6944
▁끝났	-11.6944
▁선수와	-11.6945
▁출생	-11.6947
▁정기적	-11.6947
▁입금	-11.6947
▁바뀌었	-11.6948
▁관악구	-11.6953
임대	-11.6957
▁소개하는	-11.6959
▁미래가	-11.696
년형	-11.6962
▁겉	-11.6964
카미	-11.6967
택시	-11.6969
▁수천명	-11.6969
융	-11.6972
▁매몰	-11.6975
닌	-11.6976
▁소비자물가	-11.6977
흡	-11.6978
플랜	-11.6983
륜	-11.6983
▁비판한	-11.6984
풋	-11.6984
램	-11.6985
강사	-11.6985
찔	-11.6985
▁스플릿	-11.6985
▁개그맨	-11.6985
▁냈고	-11.6985
▁댜오위다오	-11.6985
▁맺어	-11.6985
▁머릿속	-11.6985
▁모터쇼	-11.6985
▁불붙	-11.6985
▁붙였다	-11.6985
▁수석대변인	-11.6985
▁싱어송라이터	-11.6985
▁아름다움	-11.6985
▁아쉬워	-11.6985
▁앞장섰다	-11.6985
▁얽혀	-11.6985
▁우체통	-11.6985
▁융합과학기술대학원장	-11.6985
▁일으킬	-11.6985
▁임시공휴일	-11.6985
▁전국교직원노동조합	-11.6985
▁좋게	-11.6985
▁진신사리	-11.6985
▁차이콥스키	-11.6985
▁카리스마	-11.6985
▁커피전문점	-11.6985
▁컬렉션	-11.6985
▁태릉선수촌	-11.6985
▁트렁크	-11.6985
▁회삿돈	-11.6985
江	-11.6985
띤	-11.6985
▁뇌물수수	-11.6985
▁뛰어넘는	-11.6985
▁얹어	-11.6985
▁제각각	-11.6985
王	-11.6985
|	-11.6985
▁따돌리	-11.6985
▁물대포	-11.6985
田	-11.6985
▁백령도	-11.6985
▁집무실	-11.6985
▁프로세스	-11.6985
▁김국영	-11.6985
▁해양수산부	-11.6985
▁리버풀	-11.6985
▁무엇일까	-11.6985
▁김보경	-11.6985
▁법제화	-11.6985
▁적임자	-11.6985
▁차명계좌	-11.6985
낙하산	-11.6985
▁이광재	-11.6985
▁괴롭힘	-11.6985
▁토크쇼	-11.6985
김영란법	-11.6985
▁9·11	-11.6985
▁희곡	-11.6985
▁즐거움	-11.6985
▁드라이브	-11.6985
▁끌어올렸다	-11.6985
▁합수단	-11.6986
▁리듬	-11.6986
▁무장세력	-11.6986
▁물꼬	-11.6986
▁발기인	-11.6986
▁취향	-11.6986
▁남북정상회담	-11.6986
▁출격	-11.6986
▁꼬집었다	-11.6986
점슛	-11.6986
▁김주성	-11.6986
▁박영준	-11.6986
단국대	-11.6986
▁강화유리	-11.6986
▁회색	-11.6987
뱅크	-11.6987
영동고속도로	-11.6987
(64)	-11.6987
▁모바일카드	-11.6987
▁특별감찰관	-11.6987
▁강남경찰서	-11.6987
▁내레이션	-11.6987
프리	-11.6988
▁데얀	-11.6988
▁체코	-11.6988
▁판례	-11.6988
▁시장으로	-11.6988
▁서문시장	-11.6988
▁합친	-11.6988
▁잡혀	-11.6988
114	-11.6989
▁대선주자	-11.6989
▁체감	-11.6989
폭발	-11.6989
▁통합정당	-11.6989
▁대우건설	-11.699
▁중장년층	-11.699
▁도로공사	-11.699
▁폭락	-11.699
▁유머	-11.6991
▁자치정부	-11.6991
▁탈루	-11.6991
▁역전패	-11.6991
▁세부담	-11.6992
▁북송	-11.6992
▁추출	-11.6992
▁카터	-11.6992
▁직종	-11.6992
▁상용화	-11.6992
▁하사	-11.6993
▁체육계	-11.6993
▁소품	-11.6993
▁선후배	-11.6993
▁염려	-11.6994
▁태우	-11.6995
▁지배적이	-11.6995
▁정비사업	-11.6995
▁주름	-11.6996
▁1968	-11.6996
▁대치동	-11.6997
▁붙었다	-11.6997
▁유료화	-11.6998
▁참모진	-11.6998
▁페이스	-11.6998
▁삼성전자서비스	-11.6998
▁낮았다	-11.6999
▁재학생	-11.6999
▁치솟았다	-11.6999
▁쉬워	-11.7
▁빼놓	-11.7
▁양손	-11.7
블록	-11.7
하세요	-11.7
▁걸그룹	-11.7
▁막아야	-11.7001
▁볼거리	-11.7001
▁남학생	-11.7001
▁깊어지	-11.7002
▁양이	-11.7003
▁국비	-11.7003
장기	-11.7003
▁금호	-11.7003
▁미쳐	-11.7004
▁못지않게	-11.7005
▁탁월	-11.7005
▁착	-11.7005
▁이어지면서	-11.7005
▁후배들에게	-11.7006
▁상한제	-11.7008
▁바르사	-11.7008
▁위해서였다	-11.7008
▁주총	-11.7009
▁싸워	-11.701
▁현지에	-11.701
▁각지	-11.701
▁월성	-11.701
▁발견돼	-11.7011
▁북한군	-11.7011
▁쓰면	-11.7011
▁밝히면서	-11.7011
▁프로젝트에	-11.7012
▁강화에	-11.7013
억울하	-11.7013
▁예우	-11.7014
▁전문직	-11.7016
▁올라간다	-11.7016
▁대의원	-11.7016
▁2022	-11.7017
▁배웠다	-11.7017
정원	-11.7017
▁인신매매	-11.7017
▁주범	-11.7018
▁240	-11.7019
▁놓였다	-11.7019
▁것일까	-11.7019
▁반입	-11.702
▁본관	-11.702
▁대중교통	-11.702
▁어렵지만	-11.7021
▁택했다	-11.7022
▁오너	-11.7023
▁신생	-11.7023
▁김승	-11.7024
▁말았다	-11.7025
정용	-11.7025
▁튼튼	-11.7027
▁원희룡	-11.7027
▁아세안	-11.7027
▁특화	-11.7027
▁기초연금	-11.7027
▁도용	-11.703
▁일체	-11.7031
▁국가기관	-11.7031
▁전당	-11.7032
▁성적표	-11.7034
▁매도	-11.7034
▁힘들었다	-11.7034
▁결합한	-11.7034
▁선거법	-11.7035
▁손가락	-11.7036
▁오르지	-11.7036
▁취임식	-11.7036
부작	-11.7037
▁굵직	-11.7037
▁재팬	-11.7038
▁원로	-11.7038
▁쏟아지는	-11.7039
▁중앙위원회	-11.704
▁연고	-11.704
▁효율성	-11.704
▁헤드	-11.7043
▁잃어	-11.7043
▁원가량	-11.7044
▁분주	-11.7045
▁마이크로소프트	-11.7045
▁솔루션	-11.7045
▁통과시키	-11.7045
▁내리지	-11.7045
▁연예인들	-11.7046
▁영혼	-11.7046
▁나서면서	-11.7046
▁명소	-11.7047
▁기관이	-11.7048
▁망명	-11.7048
▁무용수	-11.7049
▁공식화	-11.7049
학적	-11.705
▁미친다	-11.7051
▁조준	-11.7052
▁헬	-11.7052
▁박태	-11.7054
▁콘퍼런스	-11.7054
▁한명숙	-11.7054
▁정도에	-11.7057
▁부가가치	-11.7058
▁의견서	-11.7058
▁3-2	-11.7058
▁요청해	-11.7059
▁타점	-11.7059
▁책에서	-11.706
▁공정거래법	-11.7061
▁추진에	-11.7061
▁여부와	-11.7062
▁세종로	-11.7063
(20·	-11.7063
▁간첩	-11.7064
▁마련됐다	-11.7065
▁보겠다	-11.7067
CE	-11.7068
▁억지	-11.7069
▁불렸	-11.7069
▁부담감	-11.7072
▁잡초	-11.7072
▁투명성	-11.7072
▁DMZ	-11.7073
▁롤	-11.7073
▁주민들에게	-11.7074
▁확대될	-11.7075
▁저널	-11.7075
인데다	-11.7076
▁새정치	-11.7076
▁부담해야	-11.7077
▁달력	-11.7077
▁이곳은	-11.7078
▁대처할	-11.7079
▁눈으로	-11.7083
▁맘	-11.7083
▁학점	-11.7083
▁공격력	-11.7083
섭씨	-11.7083
▁토대	-11.7087
▁열리지	-11.7087
▁배워	-11.7089
▁조윤	-11.709
음식	-11.7092
▁맞지만	-11.7092
▁동창회	-11.7094
▁잃어버	-11.7095
▁제작비	-11.7097
▁무엇이	-11.7097
▁친선	-11.7098
▁했	-11.7099
▁경북대	-11.7099
차근	-11.7099
▁개최국	-11.7101
▁포기한	-11.7102
▁주방	-11.7105
▁원만	-11.7107
▁경상	-11.7108
덕수	-11.7108
▁서점	-11.7108
▁제국	-11.711
리오	-11.7111
달러를	-11.7111
<	-11.7115
가장	-11.7115
▁피겨	-11.7115
▁찾아와	-11.7115
▁세법	-11.7116
대통령과	-11.7117
▁신기	-11.7118
▁만난다	-11.7122
▁계약직	-11.7123
▁정치권에	-11.7128
▁효과적이	-11.7128
▁대법원에	-11.7134
▁놓았다	-11.7136
스케	-11.7136
▁반감	-11.7137
▁육사	-11.7137
▁정치적으로	-11.7138
▁국가에서	-11.7139
▁가능했다	-11.7139
▁김학	-11.714
명이었다	-11.7141
했느냐	-11.7144
▁일한	-11.7146
▁의미한다	-11.7148
전투	-11.7148
▁생활에	-11.7149
▁쌍	-11.7151
▁목성	-11.7152
▁뛰었	-11.7152
▁지하철역	-11.7153
∼8	-11.7154
▁분들이	-11.7155
▁질의	-11.7156
▁논쟁이	-11.7156
▁없어서	-11.7159
▁합의문	-11.7159
▁복장	-11.716
▁달여	-11.7162
▁산소	-11.7164
함대	-11.7164
▁원금	-11.7165
▁방대	-11.7166
AS	-11.7169
▁당부	-11.717
▁간사장	-11.7176
▁특권	-11.7183
▁협의체	-11.7183
▁폐지하고	-11.7186
교육청	-11.7186
빵	-11.7186
▁시구	-11.7189
▁홍수	-11.7195
▁가입했다	-11.7199
▁그치지	-11.7199
▁유씨	-11.7201
▁등극	-11.7202
만명에	-11.7205
▁근로	-11.7207
▁상업	-11.7207
▁미세	-11.7208
▁주축	-11.7208
▁수천만원	-11.7208
내부	-11.721
내려	-11.7211
▁출전했다	-11.7213
▁사과했다	-11.7215
▁의회의	-11.7219
▁아파	-11.7223
▁세이브	-11.7224
▁날인	-11.7224
개월여	-11.7224
▁진행자	-11.7225
▁주시	-11.7226
▁경험한	-11.7229
▁직전에	-11.7229
연수	-11.723
SKT	-11.7232
·27	-11.7233
.0%)	-11.7235
▁도입하고	-11.7236
▁커리	-11.7236
그림	-11.7237
천여명	-11.7237
▁바다에	-11.7237
▁세상에	-11.7238
▁맛이	-11.7239
▁떡	-11.7239
▁성분이	-11.7239
병상	-11.7239
▁주도하고	-11.7241
▁권씨	-11.7241
▁비치	-11.7245
▁구멍	-11.7246
였을	-11.7247
▁전산	-11.7249
인방	-11.7254
(19)	-11.7255
기춘	-11.7255
▁의원에	-11.7257
호텔	-11.7258
▁올린다	-11.726
▁선고받았	-11.7261
▁총리에게	-11.7264
여만	-11.7265
▁자세한	-11.7266
▁출연하	-11.7267
▁영화에	-11.7271
형으로	-11.7272
▁수집한	-11.7273
▁사시	-11.7273
장수	-11.7274
타율	-11.7274
▁임직원들	-11.7275
▁비법	-11.7276
▁설립했다	-11.7278
▁홈에서	-11.7278
▁친이	-11.7282
▁농도	-11.7285
▁있더라	-11.7285
▁유자	-11.7287
▁몇년	-11.7287
▁전통의	-11.7288
되는데	-11.7294
▁불어	-11.7295
여름	-11.7295
묘	-11.7296
▁부근	-11.7297
춤	-11.7298
...”	-11.7298
쌍	-11.7298
▁비만	-11.7299
랩	-11.7299
▁‘5	-11.7299
▁버린	-11.73
뼈	-11.73
쉽	-11.73
LPGA	-11.7301
컨설팅	-11.7302
조선일보	-11.7302
홍준표	-11.7302
아름다운	-11.7302
비정규직	-11.7302
규칙	-11.7302
박원순	-11.7303
재건축	-11.7303
▁입는	-11.7304
논란	-11.7305
국회의원	-11.7305
지원센터	-11.731
그리스	-11.7311
PD	-11.7311
▁정신과	-11.7311
▁가정용	-11.7312
대까지	-11.7312
드림	-11.7313
세종시	-11.7314
발언	-11.7314
2.7%	-11.7316
근로자	-11.7318
현대차	-11.7318
증거	-11.7319
▁의학	-11.7319
연봉	-11.7321
▁결단을	-11.7323
▁재산세	-11.7324
▁이천시	-11.7325
회계	-11.7326
연속	-11.7328
▁시인이	-11.7328
▁판도	-11.733
▁의혹도	-11.733
▁팀에서	-11.733
▁거취	-11.733
역에서	-11.7332
현역	-11.7332
배에	-11.7334
▁부여하	-11.7338
사리	-11.734
▁주주들	-11.7345
언제	-11.7346
모두	-11.7346
▁흔적이	-11.7348
▁고조되	-11.735
공안	-11.7354
▁서산	-11.7354
고요	-11.7356
▁열지	-11.7359
▁영역에서	-11.736
▁시시	-11.7364
건물	-11.7366
▁아라	-11.7368
피디	-11.7368
▁제조사	-11.737
경력	-11.737
조용히	-11.737
동생	-11.7371
▁달고	-11.7377
초로	-11.7378
▁수상한	-11.738
▁95	-11.7381
▁젊은이	-11.7381
운용	-11.7385
▁김준	-11.7387
3.9%	-11.7388
▁남해	-11.739
▁한복	-11.7392
1971	-11.7395
▁대포	-11.7395
▁북한과의	-11.7395
▁김양	-11.7396
▁번호	-11.7399
▁꼼수	-11.7403
▁시야	-11.7403
▁사이트에	-11.7405
영우	-11.7408
단독	-11.741
정말	-11.741
▁이르	-11.741
▁없어지	-11.741
▁성장했다	-11.7415
대통령의	-11.7415
▁연구에	-11.7415
제재	-11.7418
행진	-11.7418
▁노린	-11.7418
▁지역이	-11.7421
노선	-11.7422
국정	-11.7423
▁그랬	-11.7424
▁넣었	-11.7431
▁총학생회	-11.7435
중간	-11.7437
▁전월세	-11.7445
▁받아들인	-11.7446
▁저질렀	-11.7447
▁펼쳤	-11.7448
▁떠났	-11.7448
▁국가안보실	-11.7448
▁치안	-11.7449
무장	-11.7451
구의	-11.7451
▁타당성	-11.7453
AC	-11.7454
▁진상조사	-11.7457
불교	-11.746
▁민주주의를	-11.7467
공학과	-11.747
▁만들었	-11.7472
연료	-11.7475
▁떨어뜨	-11.7475
▁정동	-11.7477
▁낭독	-11.7478
보라	-11.7479
▁투입된	-11.7482
▁득표	-11.7483
▁내부의	-11.7484
▁콘셉트	-11.7484
챙	-11.7484
옵	-11.7485
▁녹취	-11.7485
벼	-11.7485
▁야스쿠니	-11.7485
▁리커창	-11.7485
▁황희찬	-11.7485
THAAD	-11.7485
▁개별소비세	-11.7485
▁놀랐다	-11.7485
▁다이아몬드	-11.7485
▁단백질	-11.7485
▁롯데콘서트홀	-11.7485
▁무늬	-11.7485
▁사각지대	-11.7485
▁성희롱	-11.7485
▁실손보험	-11.7485
▁씻어	-11.7485
▁아닙니다	-11.7485
▁에프티에이	-11.7485
▁여기저기	-11.7485
▁우즈베크	-11.7485
▁잇따른	-11.7485
▁자외선	-11.7485
▁조혜연	-11.7485
▁쫓기	-11.7485
▁패스트푸드	-11.7485
▁펼침막	-11.7485
▁폈다	-11.7485
▁한가운데	-11.7485
▁흩어	-11.7485
솥	-11.7485
팡	-11.7485
▁대내외	-11.7485
▁문태종	-11.7485
▁엘피지	-11.7485
▁장원삼	-11.7485
▁제막식	-11.7485
▁총출동	-11.7485
▁형평성	-11.7485
公	-11.7485
無	-11.7485
▁모조품	-11.7485
▁외로움	-11.7485
▁한국해양대	-11.7485
▁효력정지	-11.7485
▁공휴일	-11.7485
▁자유경제원	-11.7485
▁한진중공업	-11.7485
▁눈높이	-11.7485
클래스	-11.7485
▁배심원	-11.7485
▁흘린	-11.7485
▁악순환	-11.7485
▁이세돌	-11.7485
▁잠깐	-11.7485
기초단체장	-11.7485
▁탔다	-11.7485
▁씨앗	-11.7485
▁붙잡혔다	-11.7485
▁김지현	-11.7486
▁0.5%	-11.7486
▁불법사찰	-11.7486
▁유효	-11.7486
▁관절염	-11.7486
▁윤호영	-11.7486
▁선동열	-11.7486
▁토요일	-11.7486
▁시장점유율	-11.7486
▁멀티	-11.7486
▁취항	-11.7486
(66)	-11.7486
▁행정처분	-11.7486
▁조코비치	-11.7486
▁철폐	-11.7486
▁롯데홈쇼핑	-11.7487
(71)	-11.7487
▁검은색	-11.7487
▁편의시설	-11.7487
▁있었는지	-11.7487
▁시민사회단체	-11.7487
▁색출	-11.7487
책임자	-11.7487
▁지났	-11.7487
▁부각되	-11.7487
▁봉투	-11.7487
▁목표주가	-11.7487
▁쓴소리	-11.7487
▁다주택자	-11.7488
▁전형료	-11.7488
▁침범	-11.7488
▁CF	-11.7488
▁정진석	-11.7488
▁처칠	-11.7488
▁침입	-11.7488
▁미묘	-11.7489
▁골목	-11.7489
▁어찌	-11.7489
▁굵	-11.7489
▁공권력	-11.7489
▁맡긴	-11.7489
▁심리전단	-11.7489
▁울려	-11.749
▁보답	-11.749
▁꾸민	-11.749
▁염색	-11.749
▁행운	-11.7491
▁이사진	-11.7491
▁2.4	-11.7491
▁내놔	-11.7491
▁경품	-11.7491
▁하나하나	-11.7491
▁챔피언결정전	-11.7492
▁넘길	-11.7492
▁특수학교	-11.7493
경영학	-11.7493
▁객실	-11.7493
▁1984	-11.7493
마켓	-11.7493
▁토종	-11.7494
▁하와이	-11.7494
▁채웠다	-11.7494
▁보람	-11.7494
▁김태호	-11.7495
씨에	-11.7495
▁예매	-11.7495
▁수색작업	-11.7495
▁망라	-11.7496
▁연소득	-11.7496
▁꾸미	-11.7496
▁단거리	-11.7497
▁다행히	-11.7497
경호	-11.7497
▁자본금	-11.7498
스틸	-11.7498
▁증원	-11.7498
▁실려	-11.7498
▁과반수	-11.7498
▁연애	-11.7499
▁인준	-11.7499
▁계승	-11.75
▁전국경제인연합회	-11.75
▁산불	-11.75
베리	-11.75
▁사료	-11.7501
▁이용하면	-11.7501
▁센서	-11.7501
▁맹타	-11.7502
▁물러서	-11.7502
▁연주자들	-11.7502
▁하루키	-11.7503
▁출원	-11.7503
▁차출	-11.7503
▁지혜	-11.7503
▁배울	-11.7503
▁예정이며	-11.7504
▁긴급회의	-11.7504
▁잔액	-11.7504
조처	-11.7505
▁6·4	-11.7505
▁비극	-11.7505
총회	-11.7507
▁발음	-11.7507
▁상설특검	-11.7508
▁배씨	-11.7508
▁일반적	-11.7509
재도전	-11.7509
▁옥시	-11.7509
▁다이애나	-11.7509
▁터졌다	-11.751
▁줄여야	-11.7511
▁원정경기에서	-11.7512
▁조사본부	-11.7512
▁다쳤다	-11.7513
▁꼽혔다	-11.7513
▁질적	-11.7514
▁다문화	-11.7515
▁대령	-11.7515
이었	-11.7516
▁시각이	-11.7516
▁리우	-11.7516
▁캘리포니아주	-11.7518
▁인제	-11.7518
▁도자기	-11.7518
▁승선	-11.7518
양은	-11.7518
▁풀이	-11.7518
▁반영하지	-11.7518
▁숯	-11.7519
▁설득력	-11.752
▁최다승	-11.752
▁치중	-11.752
▁될까	-11.7521
▁복잡한	-11.7522
▁심문	-11.7523
▁석사	-11.7523
▁도입하기로	-11.7525
유로	-11.7526
▁시설물	-11.7526
▁세포	-11.7526
▁남양주	-11.7527
▁월가	-11.7528
▁놓여	-11.7528
▁법학전문대학원	-11.7529
▁포진	-11.7529
▁먹었다	-11.753
▁각별한	-11.7531
▁사살	-11.7532
▁전작권	-11.7532
▁공정하게	-11.7532
▁생산라인	-11.7533
▁신씨	-11.7534
▁잘못됐다	-11.7534
▁요리사	-11.7535
▁채운	-11.7536
▁가능해	-11.7538
▁적기	-11.754
▁125	-11.7541
▁음원	-11.7543
▁2-1	-11.7544
▁비방	-11.7544
▁확고	-11.7545
▁학기	-11.7547
▁향수	-11.7547
...."	-11.7547
▁통학	-11.7548
▁자동차산업	-11.7548
▁주유소	-11.7548
▁대포폰	-11.7548
▁2030	-11.7549
▁지르	-11.755
▁난사	-11.755
▁주호영	-11.755
▁패전	-11.755
▁재정비	-11.755
버렸다	-11.7551
공예	-11.7551
▁선언문	-11.7552
▁유기농	-11.7554
▁위험하다	-11.7555
▁들어오면	-11.7555
▁낮아진	-11.7556
▁처해	-11.7556
민선	-11.7557
▁아주대	-11.7559
▁팬들에게	-11.756
▁국민들에게	-11.7561
▁원주민	-11.7564
▁시사했다	-11.7564
▁앞장	-11.7565
▁남구	-11.7567
▁포기하지	-11.7567
▁친서	-11.7569
▁우려와	-11.757
▁바퀴	-11.7571
동원	-11.7574
▁용산참사	-11.7578
▁내용이었다	-11.7578
▁단정	-11.758
▁임차	-11.7581
▁실상	-11.7581
▁나간다	-11.7582
▁조선인	-11.7582
▁설화	-11.7583
▁지도자들	-11.7583
▁연동	-11.7586
▁좋지만	-11.7587
▁등에게	-11.7588
▁드러나는	-11.7588
▁신상	-11.7589
▁지경	-11.7589
▁마라	-11.7589
▁단원고	-11.7589
▁지질	-11.759
▁칠레	-11.7591
es	-11.7592
▁주목받는	-11.7592
~25	-11.7594
주식	-11.7594
▁전달하	-11.7595
▁무인	-11.7596
나르	-11.7597
▁터널	-11.7597
웨	-11.7598
▁18%	-11.7599
▁돌려받	-11.7601
▁1∼3	-11.7602
미르	-11.7603
전문가들	-11.7604
도교육청	-11.7605
▁87	-11.7606
▁주식시장	-11.7606
▁발상	-11.7606
▁기업은행	-11.7606
▁믿는	-11.7607
▁ICC	-11.7607
▁개정된	-11.7607
▁자유민주주의	-11.7608
▁투자금	-11.7608
▁벌이다	-11.761
▁수입이	-11.7612
▁영남	-11.7613
FT	-11.7614
▁서울지역	-11.7618
놀	-11.7619
▁전략으로	-11.7619
▁1600	-11.7619
▁나라들	-11.7622
▁9000	-11.7625
▁196	-11.7625
▁않았을	-11.7626
▁유화	-11.7628
▁중국어	-11.7629
▁우승에	-11.7631
▁집중되	-11.7633
▁초등	-11.7634
1)	-11.7635
▁BBC	-11.7636
▁덕분	-11.7636
▁겁	-11.7636
2016	-11.7637
▁줄지	-11.7641
▁타개	-11.7643
강경	-11.7644
▁풀린	-11.7644
▁금융지주	-11.7646
▁한국으로	-11.7646
▁인정할	-11.7646
▁도시에서	-11.7647
▁없었다고	-11.7647
▁구입할	-11.7648
▁아웃	-11.7648
년대에	-11.765
▁때린	-11.7653
▁혐의에	-11.7656
▁KLPGA	-11.7656
▁셰	-11.7657
▁일어	-11.7661
▁◇"	-11.7662
▁행위로	-11.7663
▁인민	-11.7663
종일	-11.7663
▁기관지	-11.7665
▁“20	-11.7666
▁매체들	-11.7666
산천	-11.7667
▁중단하고	-11.7667
▁누리꾼	-11.7668
▁장기적	-11.7668
▁155	-11.7669
역사학	-11.767
▁빠져나가	-11.7671
▁설명하고	-11.7671
of	-11.7672
▁넘으면	-11.7673
▁수송	-11.7674
▁공중	-11.7674
소년	-11.7676
▁최성	-11.7678
▁I	-11.7678
▁어리	-11.7679
정호	-11.7679
▁전남대	-11.7679
▁압박하고	-11.7679
▁줄이려	-11.7679
정비	-11.768
▁일하며	-11.7681
▁인상이	-11.7682
▁먹이	-11.7683
▁LS	-11.7685
▁글로	-11.7687
▁나눠주	-11.7688
▁아산	-11.7692
▁항의하	-11.7695
▁팬들이	-11.7696
▁예고한	-11.7696
▁적시	-11.7699
▁89	-11.7706
▁실시한다	-11.7708
▁낮추고	-11.7711
▁에어	-11.7713
식당	-11.7719
▁원전이	-11.7723
동주	-11.7724
▁빠르다	-11.7731
~7	-11.7732
으라	-11.7735
▁사회에서	-11.7736
드린다	-11.7737
정책실장은	-11.7737
▁현실적	-11.7738
미드	-11.774
▁인대	-11.7743
▁당사자들	-11.7743
▁GDP	-11.7744
▁방안은	-11.7745
▁구리	-11.7746
▁제목으로	-11.7747
▁보였	-11.7748
▁까	-11.7751
▁짓기	-11.7754
화된	-11.7758
▁기존에	-11.7758
▁사퇴한	-11.7759
▁나주	-11.776
용성	-11.776
▁〈	-11.7764
▁소개한	-11.7765
정희	-11.7765
▁정정	-11.7766
▁진행중이	-11.7766
▁제도적	-11.7766
▁구제	-11.7767
▁부부장	-11.7768
▁병장	-11.7768
▁체포했다	-11.7769
▁13%	-11.777
업소	-11.777
▁의견으로	-11.7772
▁의원실	-11.7774
▁연구자들	-11.7774
▁추진체	-11.7775
▁바꾸	-11.7777
김영	-11.7777
설비	-11.7779
▁운동에	-11.7781
▁잠재적	-11.7782
자로서	-11.7785
봤	-11.7786
▁우대	-11.7788
끈	-11.7789
▁지정해	-11.7789
▁학자들	-11.7789
▁극한	-11.7789
▁중소기업들	-11.7795
▁재해	-11.7796
▁시위에	-11.7798
▁전속	-11.7798
▁드러난다	-11.7803
닥	-11.7804
▁상징적	-11.7805
감사원	-11.7807
연령	-11.7808
▁본격화되	-11.781
라이트	-11.7811
▁광장에서	-11.7815
▁조상	-11.7817
위원들	-11.7819
동포	-11.782
결혼	-11.7822
~11	-11.7824
▁승자	-11.7825
성남	-11.7825
팝	-11.7825
셰	-11.7825
IMF	-11.7826
▁전력이	-11.7827
옷	-11.7827
푼	-11.7828
◇	-11.7829
스위스	-11.7829
개성공단	-11.7829
▁한국산	-11.7829
이렇게	-11.7829
어떻게	-11.7829
첨단	-11.783
반도체	-11.783
합리적	-11.7831
보조금	-11.7834
학부모	-11.7834
청탁	-11.7834
▁매장에서	-11.7836
포스트	-11.7838
취소	-11.784
촉진	-11.7842
▁정당이	-11.7844
▁버티	-11.7845
면접	-11.7846
▁98	-11.7847
▁280	-11.7848
비밀	-11.7848
am	-11.7849
통계	-11.7849
ut	-11.7849
균형	-11.7851
▁부분에서	-11.7851
클리	-11.7854
▁만들어지	-11.7856
누리	-11.7857
▁자극하	-11.7858
▁취해	-11.7859
▁연구자	-11.7862
▁출전권	-11.7863
▁경인	-11.7863
네타	-11.7865
▁해운대	-11.7866
▁테니	-11.7867
영토	-11.7872
▁요구한다	-11.7872
2002	-11.7873
▁기술자	-11.7874
et	-11.7875
▁"3	-11.7879
천원	-11.7879
▁이란과	-11.7882
졌기	-11.7884
6.4%	-11.7887
▁이청용	-11.7888
▁중형	-11.789
▁흥행에	-11.789
▁대상이다	-11.789
▁정리해	-11.7891
집에서	-11.7892
▁들리	-11.7896
▁신태용	-11.7897
▁이면	-11.7898
▁다녀	-11.7899
유리	-11.7903
▁모집에	-11.7906
▁등장해	-11.7906
계약금	-11.7907
로봇	-11.7908
약품	-11.7908
▁현행법	-11.7908
▁동포	-11.791
지도부	-11.7911
▁고갈	-11.7916
▁안팎에	-11.7917
▁우리나라에서	-11.7918
▁추이	-11.7919
▁주자들	-11.792
배치	-11.7921
▁의미하는	-11.7925
▁대상인	-11.7927
▁금융회사들	-11.7927
로소	-11.7932
▁밝히기	-11.7935
서부	-11.7938
▁국제대회	-11.7939
▁장애가	-11.794
위협	-11.7944
수준	-11.7945
▁과정의	-11.7946
▁중이라고	-11.7948
▁당황	-11.795
▁감독에게	-11.7951
▁공개하는	-11.7951
▁해줄	-11.7953
경고	-11.7955
▁방식과	-11.7957
▁숨은	-11.7958
용산	-11.7958
▁권익	-11.7959
▁묻지	-11.7959
바르	-11.7962
성화	-11.7963
근로	-11.7966
▁예의	-11.7967
돌아	-11.7967
▁준비해	-11.7969
▁공통점	-11.797
어린이	-11.797
▁제기돼	-11.7971
포장	-11.7972
▁사용하면	-11.7973
투수	-11.7975
▁다음으로	-11.7975
여론	-11.7978
▁중년	-11.7978
▁심어	-11.7979
법관	-11.798
▁예년	-11.7984
▁각별	-11.7984
▁세탁	-11.7984
서비스를	-11.7985
▁같지	-11.7986
▁시중에	-11.7986
달러로	-11.7986
▁마포	-11.7987
▁빨라	-11.7988
박지원	-11.7993
▁존재하는	-11.7994
▁만나기	-11.7998
상공회의소	-11.7999
해변	-11.8
▁노벨	-11.8003
▁후원자	-11.8003
공부	-11.8003
▁비서실	-11.8004
▁플로리다	-11.8005
▁히로시마	-11.8007
▁평균자책	-11.8007
▁출품	-11.8007
깔	-11.8009
았으나	-11.8009
엇	-11.801
솟	-11.8011
▁현장실습	-11.8011
톡	-11.8011
一	-11.8011
찮	-11.8011
▁굳어	-11.8011
▁금융통화위원회	-11.8011
▁급물살	-11.8011
▁깊다	-11.8011
▁깨지	-11.8011
▁남아프리카공화국	-11.8011
▁넓어	-11.8011
▁두물머리	-11.8011
▁디딤돌	-11.8011
▁루이비통	-11.8011
▁맏형	-11.8011
▁밀어붙이	-11.8011
▁버텨	-11.8011
▁사랑받	-11.8011
▁사모펀드	-11.8011
▁세리머니	-11.8011
▁수출입은행	-11.8011
▁스카우트	-11.8011
▁완봉승	-11.8011
▁왔는데	-11.8011
▁원내대변인	-11.8011
▁인테리어	-11.8011
▁죄책감	-11.8011
▁준결승	-11.8011
▁중소기업중앙회	-11.8011
▁지구온난화	-11.8011
▁카자흐스탄	-11.8011
▁캐스팅	-11.8011
▁테임즈	-11.8011
▁테헤란	-11.8011
▁하드웨어	-11.8011
▁행정자치부	-11.8011
▁홍성흔	-11.8011
市	-11.8011
줍	-11.8011
팸	-11.8011
헬로비전	-11.8011
▁공영방송	-11.8011
▁스노든	-11.8011
▁에볼라	-11.8011
▁요르단	-11.8011
▁템포	-11.8011
▁튀니지	-11.8011
▁파이낸셜타임스	-11.8011
▁하소연	-11.8011
▁안전행정부	-11.8011
▁휘두르	-11.8011
▁현대상선	-11.8011
▁아웃도어	-11.8011
▁누진제	-11.8011
▁외무장관	-11.8011
▁실업급여	-11.8011
▁김문수	-11.8012
▁트윗	-11.8012
▁트레이드	-11.8012
▁훔쳐	-11.8012
▁스피커	-11.8012
▁고강도	-11.8012
▁조세부담	-11.8012
▁모로코	-11.8012
▁진보정의당	-11.8012
▁근로소득	-11.8012
▁골밑	-11.8012
▁모태범	-11.8012
▁현대백화점	-11.8012
시엔엔	-11.8012
▁합참	-11.8012
▁베리만	-11.8012
▁완제품	-11.8012
▁국민연금공단	-11.8012
▁윤곽	-11.8012
▁엔트리	-11.8012
▁아름답	-11.8012
▁후계자	-11.8012
▁ᄂ씨	-11.8012
▁이재성	-11.8012
▁깃발	-11.8012
▁송영길	-11.8012
백남기	-11.8012
▁대명사	-11.8013
▁성동구	-11.8013
▁설비투자	-11.8013
▁피부염	-11.8013
▁판소리	-11.8013
▁보험업계	-11.8013
▁정기국회	-11.8013
▁산문집	-11.8013
▁사흘째	-11.8013
▁일반인들	-11.8013
▁청취	-11.8013
▁허가구역	-11.8013
▁앉았다	-11.8013
▁김승연	-11.8014
▁포스터	-11.8014
▁다녀온	-11.8014
▁정동영	-11.8014
▁금호강	-11.8014
▁인정하면서도	-11.8014
▁상납	-11.8014
kt	-11.8014
▁온라인게임	-11.8014
▁김병현	-11.8014
▁경기도의회	-11.8014
▁구로구	-11.8015
▁뛰어들	-11.8015
▁유소년	-11.8015
▁연쇄	-11.8015
▁캐디	-11.8015
▁눈빛	-11.8015
아무튼	-11.8015
▁악역	-11.8016
▁종결	-11.8016
▁머	-11.8016
▁절망	-11.8016
ra	-11.8016
▁참가하는	-11.8016
▁권혁	-11.8016
▁까다로	-11.8017
▁현행범	-11.8017
▁이겨내	-11.8018
▁음악감독	-11.8018
▁바흐	-11.8018
했어야	-11.8018
역대	-11.8019
▁찌	-11.8019
색이	-11.8019
거렸다	-11.802
▁자립	-11.802
▁창건	-11.802
▁머무르	-11.8021
GC	-11.8021
▁현대차그룹	-11.8021
▁올라갈	-11.8021
▁가져온	-11.8021
▁보수적	-11.8021
▁들어줬다	-11.8022
차대전	-11.8023
▁토니	-11.8024
▁예정이어서	-11.8024
▁태어났다	-11.8025
▁다각	-11.8025
티아	-11.8026
▁단절	-11.8026
▁위해서라도	-11.8027
▁복지정책	-11.8027
▁신기록	-11.8027
▁추방	-11.8027
▁처우	-11.8028
▁동등	-11.8028
▁내셔널	-11.8028
▁공간에	-11.8028
▁조문단	-11.8029
▁괴롭	-11.8029
▁재수사	-11.8031
▁피터	-11.8031
▁어디서	-11.8032
2004	-11.8032
▁인파	-11.8032
▁낳았다	-11.8033
▁청중	-11.8033
▁기후	-11.8034
▁괜찮다	-11.8035
▁대담	-11.8036
▁대표작	-11.8036
▁파울	-11.8036
▁번복	-11.8037
▁사회간접자본	-11.8037
▁교정	-11.8038
▁비거리	-11.8038
샤오	-11.8038
▁세울	-11.8039
친박근혜	-11.8039
▁심층	-11.8039
반도	-11.8039
▁회사채	-11.804
mg	-11.8041
▁옆에서	-11.8041
▁거부감	-11.8042
▁받았는데	-11.8042
▁일원화	-11.8043
▁하나씩	-11.8044
▁나타내는	-11.8044
▁원격	-11.8046
▁인정받았	-11.8047
▁롯데와	-11.8047
▁年	-11.8047
▁브라운	-11.8047
▁자기소개서	-11.8047
▁해군기지	-11.8047
▁첫번째	-11.8047
▁단일후보	-11.8048
▁탈바꿈	-11.8049
네스	-11.8049
메드	-11.805
▁중앙당	-11.805
▁격려했다	-11.8051
▁별개로	-11.8051
정확	-11.8051
▁산모	-11.8051
▁입건했다	-11.8052
도저	-11.8052
▁엿	-11.8052
▁복권	-11.8053
▁경선에	-11.8053
▁대선에	-11.8053
▁심화되	-11.8054
▁선양	-11.8054
▁마약	-11.8054
▁정해지	-11.8055
강철	-11.8055
▁소금	-11.8055
▁단기간	-11.8056
▁이동국	-11.8057
▁벽화	-11.8057
▁폴란드	-11.8057
▁전병헌	-11.8057
▁무마	-11.8058
▁기부금	-11.8058
▁일제고사	-11.8058
▁세계경제	-11.8059
▁고무	-11.8059
▁납득할	-11.8059
▁멀다	-11.806
▁찾으려	-11.8061
▁폭주	-11.8061
▁바른	-11.8062
▁판사들	-11.8062
▁맞춤	-11.8063
▁외관	-11.8063
▁일했다	-11.8064
▁오기	-11.8066
▁과실	-11.8066
운동본부	-11.8067
▁겪어	-11.8067
▁손길	-11.8068
▁삐	-11.8068
▁강제징용	-11.8068
▁호세	-11.8068
서민	-11.8071
▁처리해	-11.8071
▁들려준	-11.8071
▁늘었고	-11.8072
▁권장	-11.8073
▁타이거	-11.8074
(24	-11.8074
▁1400	-11.8075
▁과학적	-11.8075
▁언젠가	-11.8078
빈슨	-11.8078
▁스트리트	-11.8078
▁주었다	-11.8078
▁선고한	-11.8079
and	-11.8079
해지자	-11.808
▁예정이었다	-11.8082
▁받으면서	-11.8082
▁기르	-11.8082
▁허용하지	-11.8083
▁도입해	-11.8084
▁노출되	-11.8084
차례에	-11.8084
▁먹으	-11.8084
▁생성	-11.8085
아름	-11.8086
▁1~3	-11.8087
▁살충제	-11.8088
▁정유	-11.8088
▁베이비	-11.8089
▁플라	-11.8089
▁녹화	-11.8091
▁애도	-11.8091
▁개정해	-11.8092
▁심야	-11.8092
▁작년에	-11.8093
▁호조	-11.8095
▁배치된	-11.8095
▁보름	-11.8096
▁찬사	-11.8097
▁극복하고	-11.8098
▁맞을	-11.8098
배가량	-11.8099
▁115	-11.81
모집	-11.81
달았다	-11.8103
▁정리해고	-11.8103
▁꼬리	-11.8104
▁기체	-11.8106
▁모방	-11.8107
▁압박에	-11.8108
▁신화통신	-11.8109
문화재단	-11.8111
▁작용했다	-11.8112
▁결혼한	-11.8113
▁다들	-11.8113
수용	-11.8113
▁형식적	-11.8114
▁증가에	-11.8114
▁그리는	-11.8114
▁어려워지	-11.8116
▁선교	-11.8118
▁가시적	-11.8119
▁연중	-11.8124
황식	-11.8126
▁막말	-11.8126
▁정상들	-11.813
▁종합적	-11.8131
▁동구	-11.8131
▁찍는	-11.8133
▁내려받	-11.8133
▁참여정부	-11.8134
▁나타난다	-11.8134
▁TF	-11.8134
][	-11.8135
▁실시해	-11.8136
국무	-11.8136
▁22%	-11.8137
NCC	-11.8137
▁근처에	-11.8139
분으로	-11.8139
▁심해지	-11.8141
▁정부안	-11.8143
▁이완	-11.8144
▁가속	-11.8148
▁거듭나	-11.8149
▁연상	-11.8149
▁보관대	-11.815
▁신자	-11.815
▁태도에	-11.815
▁풀려	-11.8152
▁참가한다	-11.8152
▁고려하고	-11.8152
▁0.6	-11.8154
▁난민들	-11.8154
▁번지고	-11.8156
▁체결한	-11.8157
▁배우자	-11.8158
대책본부	-11.8163
▁더민주당	-11.8165
▁상인	-11.8165
▁조정안	-11.8169
▁고국	-11.817
ation	-11.817
▁관련자들	-11.8172
▁신고가	-11.8173
▁우상	-11.8174
우석	-11.8174
▁골드	-11.8175
▁연결되	-11.8175
▁받으려	-11.8175
▁병사들	-11.8177
교장	-11.8178
식사	-11.8179
4.7%	-11.8181
▁개발과	-11.8181
단체가	-11.8183
▁민주화운동	-11.8183
해놓고	-11.8183
▁가득한	-11.8184
▁취소하고	-11.8184
EP	-11.819
2.0%	-11.8194
▁혼자서	-11.8194
▁수면	-11.8194
▁원내대표와	-11.8195
전문지	-11.8196
▁수천억원	-11.8196
(2011	-11.8198
▁강간	-11.8198
▁살기	-11.8199
▁검찰청	-11.8199
한국과	-11.82
▁가톨릭대	-11.8202
의무	-11.8205
▁미만인	-11.8205
▁해놓고	-11.8205
사업자	-11.8206
▁의제로	-11.8209
▁악화된	-11.821
동화	-11.821
▁회원들	-11.8212
▁건물에서	-11.8214
▁높이려	-11.8216
▁달부터	-11.8216
▁드림	-11.8217
인원	-11.8218
▁법조	-11.8218
2.5%	-11.8219
▁판단하고	-11.8223
▁분과	-11.8225
▁감정이	-11.8225
▁사업이다	-11.8227
▁정연	-11.8229
▁손실이	-11.8232
▁만들지	-11.8232
▁많았고	-11.8236
있어	-11.8236
ic	-11.8237
공고	-11.8237
▁제한하고	-11.824
▁운영위	-11.8242
▁엑스	-11.8244
구성	-11.8245
▁선출된	-11.8246
▁소용	-11.8246
▁뜻밖	-11.8247
대로라면	-11.8247
모씨	-11.8248
▁범죄자	-11.8248
▁패한	-11.8248
▁미사	-11.825
▁신체적	-11.8251
▁풀기	-11.8251
▁후보자들	-11.8252
▁무주택	-11.8252
▁나진	-11.8253
▁李	-11.8254
▁그었다	-11.8254
무관	-11.8255
▁부산대	-11.8257
▁좋아지	-11.8257
▁보호자	-11.8258
째로	-11.8263
▁회사원	-11.8263
▁먹었	-11.8264
▁선주	-11.8264
석현	-11.8268
▁바지	-11.8269
▁법이	-11.827
▁유골	-11.8271
코리안	-11.8273
주차	-11.8278
식으로	-11.828
▁고양이	-11.8283
▁내세우고	-11.8284
▁병원으로	-11.8285
포니	-11.8286
문서	-11.8289
보장	-11.8291
여곳	-11.8291
▁장소에	-11.8294
▁설명할	-11.8295
▁협상에서	-11.8296
지상	-11.8299
▁사랑의	-11.8303
▁매매가	-11.8303
▁몰리	-11.8303
사업부	-11.8305
▁도민	-11.8309
▁정찰	-11.8309
과목	-11.8309
▁동화	-11.8311
▁불과해	-11.8312
▁넣으	-11.8313
▁선물로	-11.8313
▁안치	-11.8314
▁확정되면	-11.8317
지부	-11.8318
▁모이는	-11.832
▁매치	-11.8321
괴	-11.8322
5)	-11.8323
아스	-11.8327
▁대화가	-11.8328
▁수박	-11.8333
만명으로	-11.8335
▁회동에서	-11.8337
▁지내고	-11.8338
▁상태인	-11.8339
외부	-11.834
▁금융사	-11.834
▁그곳	-11.8344
추천위원회	-11.8345
정수	-11.8347
▁아침에	-11.8347
▁강조해	-11.8348
▁발사대	-11.8351
▁그림자	-11.8352
홍성	-11.8352
▁확률	-11.8353
빠	-11.8354
획	-11.8355
▁연기자	-11.8357
울림	-11.8357
트레이	-11.8359
▁속초	-11.836
▁담는	-11.836
▁놀라	-11.8363
시민들	-11.8364
튀	-11.8364
국제고	-11.8365
▁판매하고	-11.837
▁무한	-11.8371
공조	-11.8371
▁옹호	-11.8372
▁요청이	-11.8376
지하철	-11.8377
털	-11.8379
▁국가로	-11.838
▁임명했다	-11.838
총괄	-11.8381
▁산지	-11.8381
▁본질적	-11.8381
KLPGA	-11.8381
디스플레이	-11.8382
檢	-11.8382
낮	-11.8382
징계	-11.8382
되려면	-11.8382
가계부채	-11.8383
▁들러	-11.8383
수수료	-11.8383
부장판사	-11.8383
챔피언	-11.8384
동아일보	-11.8384
캐나다	-11.8384
뉴욕타임스	-11.8384
뮤지컬	-11.8384
▁방안으로	-11.8385
▁사립	-11.8385
AFC	-11.8385
높	-11.8386
국민연금	-11.8386
3.7%	-11.8386
그럼	-11.8386
보육	-11.8386
▁투표에서	-11.8387
벨트	-11.8388
처벌	-11.8388
주거	-11.8389
▁전인지	-11.839
▁재적	-11.839
블루	-11.839
시민단체	-11.8391
지난달	-11.8391
향후	-11.8391
매출	-11.8391
필드	-11.8391
온라인	-11.8392
▁도움으로	-11.8393
분쟁	-11.8393
▁기대여명	-11.8394
▁피하려	-11.8396
헌재	-11.8397
▁담당한	-11.8398
▁싸움이	-11.8398
▁외국인이	-11.8399
종북	-11.8402
▁의도로	-11.8405
▁납득	-11.8405
보기	-11.8406
▁팀으로	-11.8408
▁높을	-11.8408
너무	-11.8408
▁국제사회에	-11.8412
정민	-11.8412
▁토론에서	-11.8412
go	-11.8414
원대	-11.8415
이사회	-11.8416
성향	-11.842
▁만나서	-11.8421
아트센터에서	-11.8421
▁나에게	-11.8423
▁학과	-11.8424
▁만들면	-11.8424
(2008	-11.8425
▁자녀들	-11.8425
▁창고	-11.8425
▁구명	-11.8427
ML	-11.8427
종환	-11.8429
수석비서관	-11.8429
▁국고	-11.843
입법	-11.843
▁수사중	-11.8431
▁수백억	-11.8431
주최	-11.8432
▁걸리지	-11.8434
강연	-11.8436
▁성장성	-11.8438
▁싫	-11.844
▁지은	-11.8443
8.1%	-11.8445
법률	-11.8447
CM	-11.8447
▁유도하는	-11.8449
▁지금이	-11.8449
주변	-11.845
▁가수들	-11.845
살로	-11.845
▁하여	-11.8453
우드	-11.8454
PM	-11.8455
▁목에	-11.8456
▁쟁점은	-11.8457
연구센터	-11.8464
▁국민의당과	-11.8465
3%)	-11.8465
▁소속된	-11.8465
해보겠다	-11.8467
▁달러에	-11.8469
▁소속사	-11.847
▁잡았	-11.8471
당하는	-11.8472
▁확대하기	-11.8473
▁상습적	-11.8476
▁어머니와	-11.8477
▁일대일	-11.8477
성공	-11.8477
유신	-11.8482
▁먹으면	-11.8485
소유	-11.8487
▁널	-11.8489
▁이닝	-11.849
▁밑에	-11.849
소위원회	-11.8493
▁판매한	-11.8495
거부	-11.8499
대처	-11.85
▁자율적	-11.8504
▁팬이	-11.8505
▁수배	-11.8506
▁이끌었	-11.8507
▁몰랐	-11.8508
선발	-11.851
▁생겼	-11.851
▁테이블	-11.8512
포동	-11.8513
▁집어넣	-11.8513
영역	-11.8514
지침	-11.8517
▁마땅	-11.8518
략	-11.8521
▁세금이	-11.8521
▁수년간	-11.8522
▁종일	-11.8523
청구	-11.8525
▁비하	-11.8526
혔	-11.8528
▁다름없	-11.8528
▁합류한	-11.8529
▁보여주기	-11.853
▁드러났	-11.853
의원들	-11.853
▁류현진이	-11.8531
▁것이지	-11.8532
통화	-11.8532
▁개최지	-11.8533
▁사원	-11.8535
▁부도	-11.8541
▁이태	-11.8542
▁감싸	-11.8543
물량	-11.8547
만원이다	-11.8547
ter	-11.8548
세의	-11.8549
▁당사국	-11.8549
▁만지	-11.8549
선박	-11.8552
▁시작되자	-11.8552
랬	-11.8555
즐	-11.8555
예전	-11.856
▁오하이오	-11.856
잖	-11.8561
▁뽑았	-11.8562
▁고흥	-11.8563
▁이뤄져	-11.8563
▁회원이	-11.8566
증후군	-11.8566
숍	-11.8567
▁응징	-11.8567
▁좁아	-11.8567
▁쫓아	-11.8567
젓	-11.8567
UEFA	-11.8567
z	-11.8567
▁고춧가루	-11.8567
▁근속연수	-11.8567
▁다뤘다	-11.8567
▁대타협기구	-11.8567
▁들어섰다	-11.8567
▁로펌	-11.8567
▁리처드	-11.8567
▁마이너스	-11.8567
▁맞췄다	-11.8567
▁묻혀	-11.8567
▁민노총	-11.8567
▁버크셔해서웨이	-11.8567
▁베네치아	-11.8567
▁부풀려	-11.8567
▁샀다	-11.8567
▁섞어	-11.8567
▁세인트루이스	-11.8567
▁신용위험	-11.8567
▁에피소드	-11.8567
▁연방수사국	-11.8567
▁오리지널	-11.8567
▁옳다	-11.8567
▁왔지만	-11.8567
▁월스트리트저널	-11.8567
▁윔블던	-11.8567
▁일컫는	-11.8567
▁정부서울청사	-11.8567
▁직격탄	-11.8567
▁총동창회	-11.8567
▁프랑수아	-11.8567
死	-11.8567
WBC	-11.8567
▁세계무역기구	-11.8567
▁식습관	-11.8567
▁우즈베키스탄	-11.8567
▁한국노총	-11.8567
寶	-11.8567
▁성북구	-11.8567
▁양도소득세	-11.8567
▁양승태	-11.8567
▁연구용역	-11.8567
▁오래전부터	-11.8567
▁중금속	-11.8567
▁첨예	-11.8567
地	-11.8567
▁도덕성	-11.8567
▁주저앉	-11.8567
▁강렬한	-11.8567
▁거침없	-11.8567
▁동국대	-11.8567
▁무승부	-11.8567
▁오초아	-11.8567
▁유례없	-11.8567
▁김광석	-11.8567
▁최재원	-11.8567
▁코레일	-11.8567
▁수퍼마켓	-11.8567
▁시너지	-11.8567
▁마인드	-11.8567
▁서두르	-11.8567
▁시달려	-11.8567
▁추도식	-11.8567
▁서재응	-11.8567
ECB	-11.8567
▁영유아	-11.8567
▁위치추적	-11.8567
▁초중고교	-11.8567
▁정조국	-11.8567
▁포털사이트	-11.8567
▁In	-11.8567
▁이호석	-11.8567
▁불러일으키	-11.8567
▁부정부패	-11.8567
▁퍼칼	-11.8567
▁박세리	-11.8567
▁자서전	-11.8567
▁운전기사	-11.8567
MLB	-11.8567
▁타깃	-11.8568
▁지켜봤다	-11.8568
뮤직	-11.8568
▁아니어서	-11.8568
▁표준	-11.8568
▁국정과제	-11.8568
▁금속노조	-11.8568
▁디스크	-11.8568
▁진보진영	-11.8568
▁문제제기	-11.8568
▁무제한	-11.8568
▁불평등	-11.8568
SOC	-11.8568
▁성장동력	-11.8568
▁롯데쇼핑	-11.8568
▁윤성환	-11.8568
▁빈자리	-11.8568
▁전기자동차	-11.8568
▁경남지사	-11.8568
▁토지거래	-11.8568
▁부산국제영화제	-11.8568
▁억류	-11.8568
▁화이트	-11.8569
▁맡겨	-11.8569
▁워커	-11.8569
▁중저가	-11.8569
▁낮춘	-11.8569
▁서울시교육감	-11.8569
▁가짜	-11.857
▁태광	-11.857
플렉스	-11.857
▁마음먹	-11.857
▁도의회	-11.857
▁혼합	-11.857
▁기관보고	-11.857
▁마스크	-11.857
[...]
